<pad>	0
<unk>	0
<s>	0
</s>	0
<0x00>	0
<0x01>	0
<0x02>	0
<0x03>	0
<0x04>	0
<0x05>	0
<0x06>	0
<0x07>	0
<0x08>	0
<0x09>	0
<0x0A>	0
<0x0B>	0
<0x0C>	0
<0x0D>	0
<0x0E>	0
<0x0F>	0
<0x10>	0
<0x11>	0
<0x12>	0
<0x13>	0
<0x14>	0
<0x15>	0
<0x16>	0
<0x17>	0
<0x18>	0
<0x19>	0
<0x1A>	0
<0x1B>	0
<0x1C>	0
<0x1D>	0
<0x1E>	0
<0x1F>	0
<0x20>	0
<0x21>	0
<0x22>	0
<0x23>	0
<0x24>	0
<0x25>	0
<0x26>	0
<0x27>	0
<0x28>	0
<0x29>	0
<0x2A>	0
<0x2B>	0
<0x2C>	0
<0x2D>	0
<0x2E>	0
<0x2F>	0
<0x30>	0
<0x31>	0
<0x32>	0
<0x33>	0
<0x34>	0
<0x35>	0
<0x36>	0
<0x37>	0
<0x38>	0
<0x39>	0
<0x3A>	0
<0x3B>	0
<0x3C>	0
<0x3D>	0
<0x3E>	0
<0x3F>	0
<0x40>	0
<0x41>	0
<0x42>	0
<0x43>	0
<0x44>	0
<0x45>	0
<0x46>	0
<0x47>	0
<0x48>	0
<0x49>	0
<0x4A>	0
<0x4B>	0
<0x4C>	0
<0x4D>	0
<0x4E>	0
<0x4F>	0
<0x50>	0
<0x51>	0
<0x52>	0
<0x53>	0
<0x54>	0
<0x55>	0
<0x56>	0
<0x57>	0
<0x58>	0
<0x59>	0
<0x5A>	0
<0x5B>	0
<0x5C>	0
<0x5D>	0
<0x5E>	0
<0x5F>	0
<0x60>	0
<0x61>	0
<0x62>	0
<0x63>	0
<0x64>	0
<0x65>	0
<0x66>	0
<0x67>	0
<0x68>	0
<0x69>	0
<0x6A>	0
<0x6B>	0
<0x6C>	0
<0x6D>	0
<0x6E>	0
<0x6F>	0
<0x70>	0
<0x71>	0
<0x72>	0
<0x73>	0
<0x74>	0
<0x75>	0
<0x76>	0
<0x77>	0
<0x78>	0
<0x79>	0
<0x7A>	0
<0x7B>	0
<0x7C>	0
<0x7D>	0
<0x7E>	0
<0x7F>	0
<0x80>	0
<0x81>	0
<0x82>	0
<0x83>	0
<0x84>	0
<0x85>	0
<0x86>	0
<0x87>	0
<0x88>	0
<0x89>	0
<0x8A>	0
<0x8B>	0
<0x8C>	0
<0x8D>	0
<0x8E>	0
<0x8F>	0
<0x90>	0
<0x91>	0
<0x92>	0
<0x93>	0
<0x94>	0
<0x95>	0
<0x96>	0
<0x97>	0
<0x98>	0
<0x99>	0
<0x9A>	0
<0x9B>	0
<0x9C>	0
<0x9D>	0
<0x9E>	0
<0x9F>	0
<0xA0>	0
<0xA1>	0
<0xA2>	0
<0xA3>	0
<0xA4>	0
<0xA5>	0
<0xA6>	0
<0xA7>	0
<0xA8>	0
<0xA9>	0
<0xAA>	0
<0xAB>	0
<0xAC>	0
<0xAD>	0
<0xAE>	0
<0xAF>	0
<0xB0>	0
<0xB1>	0
<0xB2>	0
<0xB3>	0
<0xB4>	0
<0xB5>	0
<0xB6>	0
<0xB7>	0
<0xB8>	0
<0xB9>	0
<0xBA>	0
<0xBB>	0
<0xBC>	0
<0xBD>	0
<0xBE>	0
<0xBF>	0
<0xC0>	0
<0xC1>	0
<0xC2>	0
<0xC3>	0
<0xC4>	0
<0xC5>	0
<0xC6>	0
<0xC7>	0
<0xC8>	0
<0xC9>	0
<0xCA>	0
<0xCB>	0
<0xCC>	0
<0xCD>	0
<0xCE>	0
<0xCF>	0
<0xD0>	0
<0xD1>	0
<0xD2>	0
<0xD3>	0
<0xD4>	0
<0xD5>	0
<0xD6>	0
<0xD7>	0
<0xD8>	0
<0xD9>	0
<0xDA>	0
<0xDB>	0
<0xDC>	0
<0xDD>	0
<0xDE>	0
<0xDF>	0
<0xE0>	0
<0xE1>	0
<0xE2>	0
<0xE3>	0
<0xE4>	0
<0xE5>	0
<0xE6>	0
<0xE7>	0
<0xE8>	0
<0xE9>	0
<0xEA>	0
<0xEB>	0
<0xEC>	0
<0xED>	0
<0xEE>	0
<0xEF>	0
<0xF0>	0
<0xF1>	0
<0xF2>	0
<0xF3>	0
<0xF4>	0
<0xF5>	0
<0xF6>	0
<0xF7>	0
<0xF8>	0
<0xF9>	0
<0xFA>	0
<0xFB>	0
<0xFC>	0
<0xFD>	0
<0xFE>	0
<0xFF>	0
ar	-0
er	-1
an	-2
in	-3
▁b	-4
en	-5
il	-6
ın	-7
ir	-8
▁k	-9
al	-10
▁d	-11
▁s	-12
ak	-13
▁y	-14
el	-15
ek	-16
lar	-17
▁g	-18
et	-19
ay	-20
▁o	-21
▁v	-22
am	-23
as	-24
▁t	-25
or	-26
at	-27
▁i	-28
es	-29
ler	-30
un	-31
da	-32
de	-33
▁B	-34
iy	-35
on	-36
▁h	-37
im	-38
▁A	-39
iz	-40
ik	-41
▁ve	-42
em	-43
▁m	-44
▁S	-45
▁K	-46
ur	-47
ır	-48
aş	-49
ul	-50
ed	-51
▁T	-52
ad	-53
▁bir	-54
ıl	-55
▁ol	-56
ün	-57
is	-58
ık	-59
▁M	-60
az	-61
▁ç	-62
ap	-63
ür	-64
it	-65
ım	-66
le	-67
um	-68
▁1	-69
▁2	-70
ab	-71
ah	-72
▁D	-73
▁E	-74
ey	-75
iş	-76
ış	-77
▁G	-78
▁Y	-79
▁p	-80
▁H	-81
ol	-82
▁il	-83
ız	-84
li	-85
▁ö	-86
ev	-87
▁İ	-88
ağ	-89
st	-90
▁f	-91
..	-92
ac	-93
▁n	-94
▁iç	-95
ok	-96
lan	-97
lı	-98
▁P	-99
▁al	-100
dan	-101
▁de	-102
üz	-103
▁gö	-104
ında	-105
ları	-106
▁ar	-107
esi	-108
01	-109
di	-110
ec	-111
la	-112
ası	-113
▁için	-114
▁ş	-115
leri	-116
ini	-117
▁yap	-118
den	-119
du	-120
ine	-121
▁O	-122
uz	-123
ların	-124
ük	-125
▁C	-126
uy	-127
▁F	-128
inde	-129
aç	-130
eri	-131
üm	-132
ti	-133
af	-134
▁bu	-135
alar	-136
▁r	-137
ya	-138
av	-139
ut	-140
▁-	-141
▁(	-142
iyor	-143
ığ	-144
▁c	-145
ıy	-146
▁z	-147
om	-148
▁ile	-149
iye	-150
ül	-151
ma	-152
00	-153
us	-154
ez	-155
lik	-156
uk	-157
dir	-158
mak	-159
ını	-160
ıs	-161
iler	-162
oğ	-163
eğ	-164
eb	-165
lam	-166
▁an	-167
▁N	-168
▁gör	-169
uş	-170
▁da	-171
▁ed	-172
▁et	-173
▁201	-174
▁Ç	-175
ilir	-176
▁baş	-177
eç	-178
eler	-179
▁R	-180
iniz	-181
inin	-182
ilm	-183
ce	-184
▁in	-185
ön	-186
ro	-187
ta	-188
▁kar	-189
▁son	-190
ip	-191
tir	-192
üy	-193
▁3	-194
eş	-195
▁#	-196
len	-197
▁ön	-198
▁gel	-199
üş	-200
dır	-201
▁ver	-202
ına	-203
te	-204
ib	-205
▁V	-206
▁kon	-207
op	-208
larak	-209
▁bil	-210
lem	-211
▁en	-212
anı	-213
▁ger	-214
▁ay	-215
▁oldu	-216
ürk	-217
lık	-218
▁tar	-219
...	-220
tır	-221
▁L	-222
▁Ö	-223
▁iş	-224
lu	-225
ği	-226
acak	-227
▁olarak	-228
mek	-229
▁Bu	-230
tan	-231
ic	-232
orum	-233
ada	-234
dı	-235
▁bul	-236
aya	-237
ör	-238
ından	-239
man	-240
▁değ	-241
edi	-242
eni	-243
▁Ş	-244
ih	-245
isi	-246
▁An	-247
tı	-248
ot	-249
os	-250
aha	-251
me	-252
yon	-253
▁çok	-254
▁olm	-255
ullan	-256
▁U	-257
▁ad	-258
se	-259
ayı	-260
▁kal	-261
▁olan	-262
unu	-263
▁yer	-264
▁0	-265
ark	-266
▁ist	-267
imiz	-268
öy	-269
▁gün	-270
ili	-271
▁aç	-272
▁4	-273
▁kad	-274
▁or	-275
▁Türk	-276
ıyor	-277
ra	-278
ede	-279
ayan	-280
eh	-281
eli	-282
ığı	-283
aki	-284
ibi	-285
▁kullan	-286
▁l	-287
ının	-288
▁var	-289
ama	-290
alı	-291
▁5	-292
aman	-293
▁yıl	-294
ki	-295
ep	-296
eki	-297
erk	-298
cı	-299
▁"	-300
▁daha	-301
▁“	-302
ca	-303
▁Ar	-304
ers	-305
ecek	-306
alış	-307
id	-308
▁uy	-309
art	-310
▁kur	-311
▁Ü	-312
ER	-313
ist	-314
inden	-315
▁sür	-316
▁bel	-317
ter	-318
abilir	-319
AR	-320
mış	-321
▁yar	-322
met	-323
▁olduğ	-324
ef	-325
ans	-326
oy	-327
▁I	-328
▁yaş	-329
▁geç	-330
san	-331
AN	-332
let	-333
eden	-334
▁çık	-335
gi	-336
end	-337
ması	-338
tr	-339
▁gibi	-340
öz	-341
▁çalış	-342
ımız	-343
▁el	-344
▁ek	-345
öl	-346
ilen	-347
ru	-348
oc	-349
201	-350
▁Al	-351
ğr	-352
üt	-353
if	-354
▁her	-355
▁on	-356
iyet	-357
sa	-358
laş	-359
▁üz	-360
ınız	-361
▁Baş	-362
▁bulun	-363
▁yapıl	-364
▁gerek	-365
est	-366
zel	-367
aber	-368
iyat	-369
leş	-370
▁yaz	-371
asında	-372
▁sağ	-373
eye	-374
daki	-375
üc	-376
lü	-377
▁:	-378
ara	-379
tur	-380
▁üzer	-381
unda	-382
▁zaman	-383
cak	-384
▁6	-385
lerin	-386
od	-387
lığ	-388
miş	-389
yi	-390
▁oy	-391
▁kadar	-392
iyle	-393
▁tek	-394
edir	-395
üyük	-396
▁pro	-397
çek	-398
▁dur	-399
ade	-400
▁yön	-401
▁sor	-402
ağı	-403
▁düş	-404
iv	-405
lara	-406
▁taraf	-407
▁ak	-408
imi	-409
▁Bir	-410
men	-411
arak	-412
aları	-413
▁ür	-414
▁Z	-415
▁top	-416
üs	-417
▁karş	-418
▁7	-419
▁dev	-420
▁at	-421
üç	-422
▁say	-423
ten	-424
ken	-425
▁ben	-426
eleri	-427
▁sah	-428
arı	-429
nin	-430
▁|	-431
▁hal	-432
elik	-433
▁10	-434
ley	-435
deki	-436
▁kap	-437
▁uyg	-438
larını	-439
▁kat	-440
▁yan	-441
lat	-442
unun	-443
▁iz	-444
ci	-445
kan	-446
aat	-447
▁Türkiye	-448
▁ev	-449
ram	-450
▁yak	-451
ısı	-452
kin	-453
ig	-454
▁ne	-455
por	-456
▁hak	-457
siniz	-458
▁a	-459
▁/	-460
▁doğ	-461
cu	-462
▁kay	-463
▁şek	-464
bet	-465
sel	-466
▁Er	-467
lad	-468
▁sonra	-469
asyon	-470
sun	-471
ster	-472
tal	-473
▁yeni	-474
▁hay	-475
lay	-476
uç	-477
▁tak	-478
▁siz	-479
esinde	-480
mas	-481
20	-482
▁dön	-483
ildi	-484
tad	-485
▁ise	-486
▁sev	-487
ret	-488
▁belir	-489
oz	-490
re	-491
tik	-492
▁Ay	-493
▁8	-494
lerini	-495
erek	-496
iç	-497
uyor	-498
eceğ	-499
▁19	-500
dür	-501
ub	-502
▁özel	-503
ob	-504
EN	-505
▁kiş	-506
▁ark	-507
▁ok	-508
izmet	-509
▁İn	-510
▁alan	-511
ht	-512
▁veya	-513
▁yol	-514
▁gir	-515
▁uz	-516
▁açık	-517
dım	-518
▁bak	-519
ekt	-520
▁es	-521
adaş	-522
iğ	-523
og	-524
ğu	-525
▁yüz	-526
han	-527
ing	-528
der	-529
lere	-530
▁öğr	-531
▁ilg	-532
▁böl	-533
siz	-534
up	-535
▁biz	-536
cel	-537
▁gen	-538
larda	-539
.0	-540
▁20	-541
emiz	-542
una	-543
▁iyi	-544
▁yük	-545
▁düz	-546
ran	-547
ileri	-548
▁den	-549
iştir	-550
bul	-551
▁W	-552
▁9	-553
▁büyük	-554
▁Gün	-555
▁gerçek	-556
ımı	-557
ılı	-558
ayın	-559
AL	-560
ılan	-561
▁değil	-562
ven	-563
▁sit	-564
▁tarafından	-565
.201	-566
▁ilk	-567
aret	-568
asıl	-569
▁ser	-570
▁İl	-571
▁Son	-572
IN	-573
▁kend	-574
▁seç	-575
▁En	-576
çe	-577
tadır	-578
▁Kar	-579
▁yok	-580
▁durum	-581
ET	-582
▁Kon	-583
▁insan	-584
com	-585
İN	-586
▁Kur	-587
▁önem	-588
ag	-589
▁hem	-590
etim	-591
▁ki	-592
adan	-593
▁tarih	-594
▁Ak	-595
ocuk	-596
ort	-597
raf	-598
▁bağ	-599
▁göster	-600
▁15	-601
▁İst	-602
ebilir	-603
▁söy	-604
▁fark	-605
azan	-606
▁Bel	-607
üzel	-608
eyi	-609
tar	-610
▁tam	-611
▁sat	-612
oh	-613
▁şekil	-614
▁har	-615
▁hizmet	-616
acağ	-617
ıyla	-618
enin	-619
liği	-620
kanı	-621
oş	-622
▁12	-623
▁ort	-624
abil	-625
▁as	-626
tık	-627
▁san	-628
EL	-629
mesi	-630
anbul	-631
▁par	-632
▁Ek	-633
▁göre	-634
uştur	-635
▁ot	-636
dur	-637
▁J	-638
10	-639
ye	-640
malar	-641
ilik	-642
fa	-643
▁İş	-644
▁alt	-645
▁arkadaş	-646
maya	-647
usu	-648
rı	-649
▁ama	-650
sek	-651
bir	-652
oj	-653
▁neden	-654
▁çek	-655
iyorum	-656
istem	-657
AK	-658
lığı	-659
üst	-660
▁tüm	-661
▁mil	-662
üven	-663
▁eğ	-664
▁bilg	-665
▁has	-666
▁TL	-667
eniz	-668
▁Bil	-669
mam	-670
▁ul	-671
azı	-672
lama	-673
▁,	-674
ehir	-675
▁önce	-676
▁ya	-677
▁alın	-678
▁göz	-679
▁yet	-680
alık	-681
ika	-682
▁11	-683
etir	-684
larının	-685
nın	-686
▁olduğu	-687
erkez	-688
▁–	-689
ğini	-690
ne	-691
▁aş	-692
▁der	-693
▁ilgili	-694
▁şekilde	-695
▁is	-696
iğer	-697
itim	-698
anın	-699
AT	-700
▁sır	-701
▁Gen	-702
▁Bak	-703
nı	-704
▁uygul	-705
ide	-706
emek	-707
ulu	-708
▁mes	-709
ça	-710
▁tut	-711
ka	-712
▁faz	-713
eg	-714
▁devam	-715
aj	-716
ent	-717
▁w	-718
▁am	-719
maktadır	-720
▁getir	-721
işim	-722
eti	-723
orm	-724
alan	-725
▁'	-726
▁200	-727
leştir	-728
▁ter	-729
ıcı	-730
12	-731
esin	-732
esine	-733
lerde	-734
larına	-735
▁bin	-736
endi	-737
▁kol	-738
▁etti	-739
iyon	-740
▁ürün	-741
▁fiyat	-742
▁mu	-743
▁Haber	-744
▁dol	-745
ES	-746
ost	-747
▁şey	-748
oloj	-749
tür	-750
▁az	-751
▁söz	-752
▁Pro	-753
İL	-754
▁sahip	-755
▁ül	-756
dü	-757
gün	-758
dığ	-759
__	-760
lendir	-761
tü	-762
lah	-763
dığı	-764
▁u	-765
▁dün	-766
esini	-767
▁ağ	-768
ov	-769
▁olur	-770
üp	-771
he	-772
atır	-773
▁14	-774
▁yorum	-775
ohbet	-776
▁Or	-777
ant	-778
leme	-779
rup	-780
▁içer	-781
▁değer	-782
ıp	-783
AS	-784
▁güzel	-785
▁bas	-786
▁duy	-787
ici	-788
▁olduğunu	-789
▁saat	-790
▁öğren	-791
maz	-792
▁sun	-793
▁önemli	-794
sız	-795
OR	-796
net	-797
azır	-798
▁İstanbul	-799
ılık	-800
▁düşün	-801
▁13	-802
▁Tar	-803
si	-804
lerine	-805
▁18	-806
▁tan	-807
▁bek	-808
öyle	-809
▁hakk	-810
▁16	-811
▁tem	-812
:3	-813
İR	-814
osy	-815
asar	-816
▁im	-817
tu	-818
▁düzen	-819
▁ede	-820
▁tel	-821
▁Ad	-822
ge	-823
lerinin	-824
▁görün	-825
▁öl	-826
▁oyun	-827
▁Cum	-828
▁kıs	-829
▁hayat	-830
EK	-831
▁kazan	-832
▁El	-833
AM	-834
▁tes	-835
mekt	-836
abilirsiniz	-837
▁iki	-838
▁boy	-839
AY	-840
▁arasında	-841
▁Es	-842
▁ülk	-843
▁sistem	-844
▁etk	-845
:4	-846
▁birlik	-847
▁taş	-848
▁içinde	-849
ındaki	-850
uv	-851
eyen	-852
eme	-853
▁zor	-854
▁fazla	-855
11	-856
:5	-857
lardan	-858
eği	-859
efon	-860
adece	-861
larında	-862
ow	-863
ünde	-864
likle	-865
üyor	-866
▁konuş	-867
dar	-868
▁diye	-869
acı	-870
▁Par	-871
▁nasıl	-872
▁hiç	-873
▁kam	-874
ank	-875
▁17	-876
UR	-877
▁Tek	-878
ch	-879
▁İs	-880
ahat	-881
▁Av	-882
enk	-883
▁olmak	-884
▁dedi	-885
▁Ev	-886
ladı	-887
oğlu	-888
▁gelen	-889
▁bur	-890
LAR	-891
▁Eğ	-892
ledi	-893
:2	-894
▁kim	-895
▁Beled	-896
▁güven	-897
tığı	-898
gram	-899
▁işlem	-900
▁Mü	-901
▁dest	-902
mektedir	-903
▁hazır	-904
anlı	-905
meye	-906
▁.	-907
ON	-908
▁çocuk	-909
▁dik	-910
▁olacak	-911
▁diğer	-912
ana	-913
▁if	-914
ri	-915
▁kab	-916
▁1.	-917
na	-918
ket	-919
▁dış	-920
ece	-921
lak	-922
▁Başkanı	-923
erv	-924
ile	-925
▁kr	-926
▁Mu	-927
iyoruz	-928
larla	-929
hur	-930
luk	-931
▁konu	-932
▁Ben	-933
▁Bur	-934
▁kan	-935
▁sal	-936
ivers	-937
mir	-938
▁haf	-939
▁ulaş	-940
▁kö	-941
▁Yap	-942
▁2017	-943
▁Top	-944
las	-945
diği	-946
▁yardım	-947
liğ	-948
res	-949
▁birlikte	-950
EM	-951
▁ör	-952
19	-953
▁2016	-954
kat	-955
mi	-956
iyas	-957
ızı	-958
--	-959
▁bah	-960
iversit	-961
LI	-962
▁kor	-963
▁aynı	-964
▁mak	-965
▁eden	-966
▁eş	-967
rak	-968
50	-969
▁yapılan	-970
:0	-971
unuz	-972
▁haber	-973
ilmesi	-974
atı	-975
▁Ot	-976
itap	-977
olu	-978
ilerin	-979
azar	-980
▁karşı	-981
kü	-982
gil	-983
▁gön	-984
▁mod	-985
okt	-986
nun	-987
inizi	-988
▁sen	-989
lük	-990
İM	-991
larımız	-992
ünü	-993
▁mi	-994
▁üst	-995
İK	-996
▁mal	-997
▁‘	-998
per	-999
▁[	-1000
▁tab	-1001
▁San	-1002
▁üy	-1003
▁Yeni	-1004
▁Kad	-1005
▁hav	-1006
dik	-1007
üne	-1008
isinde	-1009
lerinde	-1010
ğü	-1011
▁çev	-1012
▁iliş	-1013
▁yüksek	-1014
aylaş	-1015
yla	-1016
▁bölg	-1017
aştır	-1018
▁dönem	-1019
▁Tem	-1020
▁mü	-1021
evap	-1022
asına	-1023
▁2019	-1024
▁önc	-1025
▁em	-1026
▁Ön	-1027
▁Öz	-1028
▁2018	-1029
adı	-1030
▁çıkar	-1031
▁tamam	-1032
LER	-1033
▁görev	-1034
sin	-1035
▁art	-1036
▁sadece	-1037
layan	-1038
▁e	-1039
▁öz	-1040
▁farklı	-1041
kara	-1042
gel	-1043
▁Genel	-1044
▁sık	-1045
▁Say	-1046
sam	-1047
▁sı	-1048
aba	-1049
tığ	-1050
▁hat	-1051
anda	-1052
akk	-1053
▁er	-1054
eda	-1055
▁As	-1056
▁İç	-1057
▁23	-1058
▁karar	-1059
▁tür	-1060
dık	-1061
▁değiş	-1062
▁indir	-1063
ütün	-1064
....	-1065
ww	-1066
▁Ol	-1067
hal	-1068
▁kurul	-1069
ırak	-1070
esinin	-1071
bol	-1072
ıldı	-1073
▁Tr	-1074
▁Ün	-1075
etler	-1076
▁doğru	-1077
▁22	-1078
▁At	-1079
▁İz	-1080
▁dav	-1081
▁mut	-1082
▁iht	-1083
▁su	-1084
▁bit	-1085
siyon	-1086
min	-1087
anıt	-1088
▁uygun	-1089
▁eder	-1090
ücret	-1091
osyal	-1092
tp	-1093
▁tekn	-1094
▁Yıl	-1095
adığ	-1096
-0	-1097
▁Mil	-1098
▁anlam	-1099
atik	-1100
mıştır	-1101
▁21	-1102
çi	-1103
ilecek	-1104
▁sohbet	-1105
AD	-1106
▁bulunan	-1107
:1	-1108
▁film	-1109
▁2.	-1110
▁git	-1111
▁Yar	-1112
▁ücret	-1113
▁gid	-1114
▁teş	-1115
▁%	-1116
▁erk	-1117
▁kaç	-1118
▁kadın	-1119
//	-1120
▁kendi	-1121
ektör	-1122
İY	-1123
▁destek	-1124
elim	-1125
▁belirt	-1126
▁AB	-1127
nak	-1128
▁hakkında	-1129
▁30	-1130
▁»	-1131
▁mad	-1132
lim	-1133
▁dikkat	-1134
▁ik	-1135
▁Özel	-1136
▁telefon	-1137
ucu	-1138
ekk	-1139
usunda	-1140
ayıs	-1141
asını	-1142
AŞ	-1143
▁etm	-1144
lerden	-1145
://	-1146
gul	-1147
▁dil	-1148
ıyorum	-1149
of	-1150
▁sorun	-1151
ali	-1152
eket	-1153
.2	-1154
ion	-1155
ver	-1156
▁kullanıl	-1157
baş	-1158
▁bırak	-1159
kı	-1160
▁24	-1161
sal	-1162
▁olması	-1163
edav	-1164
▁Kal	-1165
urt	-1166
ook	-1167
▁Kas	-1168
▁Cumhur	-1169
istan	-1170
▁karşıl	-1171
avaş	-1172
▁Tur	-1173
▁bun	-1174
ök	-1175
lanan	-1176
▁Her	-1177
tif	-1178
▁proj	-1179
bar	-1180
▁Dev	-1181
▁Oy	-1182
▁Ok	-1183
▁fir	-1184
▁güç	-1185
▁olduk	-1186
▁Başkan	-1187
diğ	-1188
▁res	-1189
▁Gör	-1190
▁hız	-1191
▁sın	-1192
▁genel	-1193
▁oyn	-1194
anlar	-1195
iyaret	-1196
▁>	-1197
ED	-1198
▁Am	-1199
▁anlat	-1200
▁Kay	-1201
abı	-1202
▁oluştur	-1203
muş	-1204
-2	-1205
obil	-1206
ite	-1207
oğan	-1208
onom	-1209
▁üret	-1210
▁program	-1211
▁maç	-1212
cort	-1213
lerle	-1214
gin	-1215
000	-1216
gan	-1217
lum	-1218
▁gönder	-1219
hat	-1220
edik	-1221
▁kişi	-1222
▁eğitim	-1223
etay	-1224
▁sonr	-1225
▁25	-1226
▁yaşam	-1227
ber	-1228
IR	-1229
▁Kan	-1230
▁un	-1231
▁Yorum	-1232
),	-1233
▁Ey	-1234
rar	-1235
▁Dün	-1236
▁Mes	-1237
▁gerçekleştir	-1238
▁yür	-1239
▁geçir	-1240
ternet	-1241
▁bile	-1242
lerimiz	-1243
muz	-1244
▁uzun	-1245
▁çöz	-1246
▁Şub	-1247
oğraf	-1248
▁Mah	-1249
▁Biz	-1250
▁Ne	-1251
▁Müdür	-1252
▁uç	-1253
▁Hay	-1254
üçük	-1255
▁In	-1256
lenen	-1257
▁biri	-1258
duğu	-1259
▁görüş	-1260
mez	-1261
azet	-1262
▁merkez	-1263
",	-1264
ST	-1265
meler	-1266
▁dem	-1267
▁oluş	-1268
pr	-1269
▁mı	-1270
▁yakın	-1271
▁Büyük	-1272
trol	-1273
▁&	-1274
▁bölüm	-1275
lerinden	-1276
rıca	-1277
▁pol	-1278
▁han	-1279
UL	-1280
▁Ankara	-1281
▁Tarih	-1282
vur	-1283
suz	-1284
all	-1285
▁üzerinde	-1286
▁Böl	-1287
umuz	-1288
":	-1289
▁üzere	-1290
▁plan	-1291
eyin	-1292
▁od	-1293
larından	-1294
may	-1295
amp	-1296
cek	-1297
ümüz	-1298
▁of	-1299
30	-1300
▁üzerine	-1301
arası	-1302
alt	-1303
▁Gel	-1304
İT	-1305
▁Has	-1306
▁2015	-1307
AB	-1308
lamak	-1309
▁Yön	-1310
▁Haz	-1311
▁ihtiy	-1312
irket	-1313
**	-1314
▁ht	-1315
▁izle	-1316
gı	-1317
▁met	-1318
▁On	-1319
▁hes	-1320
▁tasar	-1321
▁edilm	-1322
▁tr	-1323
be	-1324
▁yatır	-1325
IM	-1326
mayı	-1327
▁paylaş	-1328
ekkür	-1329
▁üç	-1330
▁bilgi	-1331
▁din	-1332
▁yas	-1333
15	-1334
ari	-1335
▁hep	-1336
ültür	-1337
▁kom	-1338
▁http	-1339
çok	-1340
▁bazı	-1341
▁Aç	-1342
ud	-1343
▁seb	-1344
▁Uy	-1345
▁kız	-1346
İZ	-1347
akat	-1348
▁Ocak	-1349
▁ayr	-1350
ize	-1351
dından	-1352
▁koy	-1353
▁düny	-1354
▁ses	-1355
▁Merkez	-1356
▁Üniversit	-1357
▁kes	-1358
ışı	-1359
▁Bay	-1360
▁kolay	-1361
▁ediyor	-1362
▁kez	-1363
▁sağlık	-1364
▁mah	-1365
oru	-1366
▁başar	-1367
iyesi	-1368
▁katıl	-1369
▁uygulam	-1370
rupa	-1371
▁etmek	-1372
van	-1373
▁yay	-1374
▁Hal	-1375
▁tur	-1376
▁açıklam	-1377
tem	-1378
uan	-1379
ele	-1380
▁Der	-1381
▁yönet	-1382
▁tal	-1383
▁yayın	-1384
nde	-1385
ediğ	-1386
ÜN	-1387
izi	-1388
amaz	-1389
lo	-1390
ıma	-1391
▁Ko	-1392
maları	-1393
lıy	-1394
dem	-1395
nek	-1396
ünkü	-1397
adığı	-1398
▁Mart	-1399
uc	-1400
▁para	-1401
any	-1402
lül	-1403
▁ortaya	-1404
▁Kap	-1405
umu	-1406
▁mev	-1407
▁AK	-1408
▁başka	-1409
eşit	-1410
ektr	-1411
elerin	-1412
▁araç	-1413
UN	-1414
▁olsun	-1415
▁fa	-1416
AZ	-1417
▁Doğ	-1418
gu	-1419
▁Ve	-1420
▁olabilir	-1421
sik	-1422
▁kabul	-1423
▁ziyaret	-1424
masını	-1425
▁Nis	-1426
▁ABD	-1427
▁VE	-1428
▁ac	-1429
otoğraf	-1430
AP	-1431
imdi	-1432
ard	-1433
▁2014	-1434
▁geliş	-1435
ale	-1436
▁benim	-1437
▁Uz	-1438
▁rahat	-1439
▁adet	-1440
iran	-1441
▁Tak	-1442
▁bütün	-1443
ektedir	-1444
edef	-1445
18	-1446
▁$	-1447
ebek	-1448
▁yılında	-1449
▁Bey	-1450
sanız	-1451
ciler	-1452
▁böyle	-1453
▁otel	-1454
▁kır	-1455
.5	-1456
ılır	-1457
ayet	-1458
ba	-1459
▁incel	-1460
▁milyon	-1461
▁tah	-1462
uluk	-1463
▁şu	-1464
▁ün	-1465
bak	-1466
14	-1467
▁id	-1468
▁erkek	-1469
▁yüzde	-1470
erli	-1471
▁Dr	-1472
▁Bakan	-1473
ÜR	-1474
▁sonuç	-1475
▁Ekim	-1476
tiv	-1477
det	-1478
enek	-1479
▁bey	-1480
▁yaklaş	-1481
16	-1482
indeki	-1483
▁Avrupa	-1484
▁2013	-1485
isini	-1486
▁hareket	-1487
olar	-1488
▁Ür	-1489
▁içerisinde	-1490
▁li	-1491
ime	-1492
▁mas	-1493
co	-1494
▁geri	-1495
oloji	-1496
madan	-1497
▁terc	-1498
▁ardından	-1499
▁serv	-1500
▁bayan	-1501
▁av	-1502
çı	-1503
alat	-1504
▁Sağ	-1505
▁Allah	-1506
▁geldi	-1507
▁ancak	-1508
AH	-1509
▁edilen	-1510
DE	-1511
▁Et	-1512
▁konusunda	-1513
ast	-1514
▁vat	-1515
▁mer	-1516
landı	-1517
duğ	-1518
fer	-1519
▁diy	-1520
▁Temmuz	-1521
leyen	-1522
▁+	-1523
anan	-1524
kinci	-1525
OL	-1526
manın	-1527
br	-1528
13	-1529
aban	-1530
____	-1531
doğan	-1532
abilm	-1533
▁Em	-1534
iliyor	-1535
tiğ	-1536
▁Fiyat	-1537
acağı	-1538
▁Yük	-1539
HP	-1540
▁yapan	-1541
▁yerine	-1542
malı	-1543
▁Yaz	-1544
ore	-1545
ind	-1546
▁Har	-1547
▁Kat	-1548
▁dak	-1549
undan	-1550
one	-1551
▁...	-1552
tım	-1553
tep	-1554
▁Mayıs	-1555
▁Eğitim	-1556
▁müş	-1557
can	-1558
▁Ancak	-1559
▁bugün	-1560
lek	-1561
imli	-1562
▁X	-1563
▁kav	-1564
▁ber	-1565
▁num	-1566
masına	-1567
▁28	-1568
▁tat	-1569
ij	-1570
unca	-1571
▁sey	-1572
acaktır	-1573
-201	-1574
▁kalit	-1575
▁100	-1576
▁kapsam	-1577
▁Res	-1578
lis	-1579
IL	-1580
üsü	-1581
▁Kr	-1582
▁Tel	-1583
ate	-1584
eceği	-1585
▁kontrol	-1586
asının	-1587
ıt	-1588
ker	-1589
andaş	-1590
dın	-1591
▁vardır	-1592
▁çalışmalar	-1593
▁Kadın	-1594
▁dah	-1595
▁vur	-1596
▁bilin	-1597
ıştır	-1598
▁yapmak	-1599
▁Spor	-1600
bilir	-1601
▁başvur	-1602
▁günü	-1603
▁man	-1604
ırs	-1605
▁size	-1606
isine	-1607
ılması	-1608
nda	-1609
▁Sat	-1610
kün	-1611
sunuz	-1612
dim	-1613
.”	-1614
▁takım	-1615
▁birçok	-1616
▁tav	-1617
▁Ser	-1618
azi	-1619
ener	-1620
iyi	-1621
▁Kasım	-1622
otel	-1623
:00	-1624
▁değerlendir	-1625
▁Hav	-1626
▁ifade	-1627
▁çeşit	-1628
▁2012	-1629
▁his	-1630
▁model	-1631
▁26	-1632
ünün	-1633
17	-1634
▁teşekkür	-1635
İS	-1636
har	-1637
lus	-1638
▁Daha	-1639
ift	-1640
▁renk	-1641
sil	-1642
▁Tüm	-1643
▁Nisan	-1644
▁Ab	-1645
lemek	-1646
▁Güncel	-1647
amı	-1648
ayıt	-1649
▁Haziran	-1650
ücad	-1651
tül	-1652
▁mem	-1653
şehir	-1654
lüğü	-1655
▁yağ	-1656
line	-1657
edim	-1658
▁ilç	-1659
▁Dem	-1660
▁mey	-1661
ıyoruz	-1662
▁söyledi	-1663
▁27	-1664
sman	-1665
▁gelir	-1666
▁genç	-1667
gın	-1668
▁mark	-1669
erj	-1670
▁Tekn	-1671
dum	-1672
▁Etik	-1673
▁tercih	-1674
▁hedef	-1675
▁olay	-1676
ebilirsiniz	-1677
▁Belediye	-1678
ıza	-1679
emi	-1680
ation	-1681
▁yen	-1682
▁şirket	-1683
▁artık	-1684
zer	-1685
isyon	-1686
▁j	-1687
▁per	-1688
▁St	-1689
bah	-1690
▁can	-1691
).	-1692
▁Ah	-1693
Bu	-1694
talya	-1695
▁yaptığı	-1696
amak	-1697
▁@	-1698
miştir	-1699
▁inan	-1700
▁Sev	-1701
▁Gö	-1702
▁Su	-1703
ni	-1704
go	-1705
ren	-1706
taj	-1707
▁Man	-1708
tim	-1709
▁Ürün	-1710
oğun	-1711
uyu	-1712
▁Eylül	-1713
üküm	-1714
ınıf	-1715
DA	-1716
▁bunu	-1717
ince	-1718
▁Mar	-1719
etmen	-1720
24	-1721
▁Serv	-1722
▁öde	-1723
▁yatırım	-1724
▁Kom	-1725
▁görül	-1726
dana	-1727
▁iti	-1728
for	-1729
▁hafta	-1730
▁yine	-1731
ümkün	-1732
▁tedav	-1733
▁zar	-1734
▁Öğr	-1735
▁29	-1736
likleri	-1737
▁İlk	-1738
lif	-1739
▁üzerinden	-1740
afa	-1741
ink	-1742
▁3.	-1743
lıyor	-1744
uh	-1745
25	-1746
▁Cevap	-1747
80	-1748
gun	-1749
▁kut	-1750
▁Mak	-1751
1.	-1752
▁Üniversitesi	-1753
▁toplan	-1754
ıntı	-1755
mem	-1756
tin	-1757
▁Aralık	-1758
▁2020	-1759
▁ilet	-1760
▁devlet	-1761
▁soru	-1762
ani	-1763
▁kurum	-1764
▁?	-1765
▁Bah	-1766
ise	-1767
ilmiş	-1768
▁temiz	-1769
ve	-1770
▁Gir	-1771
▁sab	-1772
▁cez	-1773
▁Alt	-1774
▁Çocuk	-1775
üler	-1776
şam	-1777
60	-1778
din	-1779
imleri	-1780
▁bay	-1781
▁büy	-1782
▁kitap	-1783
▁dönüş	-1784
alım	-1785
▁the	-1786
▁geliştir	-1787
▁kısa	-1788
▁hemen	-1789
su	-1790
▁şeh	-1791
lilik	-1792
▁herk	-1793
▁Sayfa	-1794
▁Şubat	-1795
▁kil	-1796
▁bağlı	-1797
ebook	-1798
aliyet	-1799
▁Yaş	-1800
üb	-1801
hangi	-1802
onu	-1803
▁altında	-1804
utbol	-1805
ilere	-1806
▁okul	-1807
▁Ama	-1808
▁Değ	-1809
▁geçen	-1810
deş	-1811
▁sosyal	-1812
▁zamanda	-1813
▁nokt	-1814
▁nedeniyle	-1815
▁Ali	-1816
alet	-1817
▁giriş	-1818
▁Erdoğan	-1819
▁*	-1820
▁aras	-1821
▁ab	-1822
abilecek	-1823
imler	-1824
stos	-1825
▁itibar	-1826
▁dir	-1827
ack	-1828
▁Otel	-1829
▁Meh	-1830
ılmış	-1831
▁Kol	-1832
ümü	-1833
UM	-1834
▁kul	-1835
▁araştır	-1836
▁vatandaş	-1837
etaylı	-1838
▁Ağu	-1839
▁Mer	-1840
▁and	-1841
▁küçük	-1842
▁satış	-1843
spor	-1844
bu	-1845
IK	-1846
▁spor	-1847
▁bizim	-1848
▁yarat	-1849
▁ner	-1850
▁İngil	-1851
▁İzmir	-1852
taş	-1853
oda	-1854
▁Sur	-1855
▁st	-1856
yle	-1857
▁hastal	-1858
erson	-1859
landır	-1860
▁50	-1861
eci	-1862
99	-1863
▁Ver	-1864
duk	-1865
/201	-1866
▁Bul	-1867
▁mesaj	-1868
▁gereken	-1869
▁kir	-1870
▁sektör	-1871
ekli	-1872
anları	-1873
▁Çok	-1874
▁eski	-1875
▁dünya	-1876
▁yardımcı	-1877
▁toplum	-1878
▁bar	-1879
▁Sit	-1880
▁Parti	-1881
▁kaldır	-1882
inize	-1883
▁09	-1884
ere	-1885
▁kaynak	-1886
▁edildi	-1887
."	-1888
▁takip	-1889
▁Bas	-1890
▁cin	-1891
iri	-1892
▁sınır	-1893
▁·	-1894
▁biraz	-1895
▁hiçbir	-1896
dığını	-1897
▁Sam	-1898
üf	-1899
izm	-1900
imizin	-1901
kın	-1902
▁oldukça	-1903
▁olup	-1904
▁değiştir	-1905
aların	-1906
▁Film	-1907
ESİ	-1908
ediye	-1909
▁mücad	-1910
uyla	-1911
▁almak	-1912
▁etkin	-1913
▁oluyor	-1914
▁ders	-1915
▁tık	-1916
isay	-1917
▁Türkçe	-1918
▁Hat	-1919
▁veren	-1920
▁pek	-1921
▁AL	-1922
▁engel	-1923
üğ	-1924
▁canlı	-1925
▁internet	-1926
dül	-1927
▁sin	-1928
EY	-1929
tiği	-1930
90	-1931
▁adam	-1932
ukuk	-1933
▁Ark	-1934
▁ekonom	-1935
sın	-1936
bi	-1937
▁sitesi	-1938
▁yat	-1939
▁mik	-1940
acağını	-1941
23	-1942
inal	-1943
▁mümkün	-1944
▁saldır	-1945
▁bildir	-1946
▁km	-1947
EV	-1948
▁fay	-1949
▁Pol	-1950
▁uzak	-1951
▁başladı	-1952
▁Yak	-1953
isinin	-1954
▁ait	-1955
▁Bunun	-1956
▁yöntem	-1957
▁diz	-1958
etleri	-1959
▁fotoğraf	-1960
▁Alan	-1961
▁anlaş	-1962
▁gez	-1963
▁Oyun	-1964
▁Söz	-1965
aten	-1966
,5	-1967
artesi	-1968
▁ağır	-1969
imde	-1970
▁değişik	-1971
▁kesin	-1972
▁bilm	-1973
▁Dünya	-1974
evi	-1975
▁Haberleri	-1976
log	-1977
icaret	-1978
asyonu	-1979
▁süre	-1980
iyeti	-1981
▁Ter	-1982
▁çevr	-1983
day	-1984
▁beraber	-1985
▁tekrar	-1986
elere	-1987
▁koş	-1988
▁Osman	-1989
▁sil	-1990
ideo	-1991
▁Açık	-1992
alarda	-1993
erken	-1994
atör	-1995
40	-1996
▁sak	-1997
air	-1998
lendi	-1999
mal	-2000
▁konusu	-2001
ina	-2002
itik	-2003
esinden	-2004
uvar	-2005
▁sayf	-2006
▁Ayrıca	-2007
▁hızlı	-2008
▁Ağustos	-2009
ulan	-2010
▁Kullan	-2011
mel	-2012
adık	-2013
lenme	-2014
▁ekip	-2015
cut	-2016
isk	-2017
imizi	-2018
egor	-2019
▁Aş	-2020
▁ih	-2021
▁Belediyesi	-2022
ısında	-2023
▁ilişk	-2024
uğ	-2025
▁)	-2026
▁Mod	-2027
▁otom	-2028
OM	-2029
▁pr	-2030
▁ip	-2031
müş	-2032
▁le	-2033
▁Per	-2034
ücü	-2035
ezon	-2036
▁Devlet	-2037
▁herhangi	-2038
ia	-2039
▁kit	-2040
aca	-2041
35	-2042
▁Etiketler	-2043
▁Rus	-2044
teri	-2045
▁tük	-2046
2.	-2047
mer	-2048
isayar	-2049
▁x	-2050
▁bahis	-2051
▁bana	-2052
▁Mehmet	-2053
▁çağ	-2054
▁Ör	-2055
▁istem	-2056
imize	-2057
elerini	-2058
▁boz	-2059
----	-2060
▁siyas	-2061
cısı	-2062
efer	-2063
▁rek	-2064
▁Geç	-2065
elerde	-2066
acebook	-2067
▁yönelik	-2068
▁ücretsiz	-2069
▁Bar	-2070
▁yüksel	-2071
asa	-2072
▁bilgiler	-2073
▁ortak	-2074
▁ail	-2075
▁gerekir	-2076
▁çalışan	-2077
▁iddi	-2078
cü	-2079
▁ey	-2080
▁dair	-2081
▁sav	-2082
▁cevap	-2083
▁Yüksek	-2084
▁köy	-2085
▁Mal	-2086
▁Kır	-2087
▁boş	-2088
rik	-2089
ata	-2090
▁çiz	-2091
▁elde	-2092
▁oper	-2093
▁Erk	-2094
mar	-2095
▁verdi	-2096
ayıp	-2097
kil	-2098
th	-2099
▁tarihi	-2100
▁cih	-2101
▁temel	-2102
IZ	-2103
AC	-2104
▁suç	-2105
▁müz	-2106
▁kayıt	-2107
▁yani	-2108
▁Deniz	-2109
İŞ	-2110
ormal	-2111
ork	-2112
▁bor	-2113
▁bunun	-2114
▁Forum	-2115
lararası	-2116
▁sar	-2117
ou	-2118
▁med	-2119
▁(2	-2120
▁Prof	-2121
ışık	-2122
▁yeniden	-2123
▁hesap	-2124
gisi	-2125
acağız	-2126
▁ma	-2127
▁tarihinde	-2128
dız	-2129
▁faaliyet	-2130
OK	-2131
▁onun	-2132
▁cm	-2133
▁seçim	-2134
elen	-2135
▁08	-2136
fen	-2137
▁Konu	-2138
▁Sal	-2139
▁olmayan	-2140
oğu	-2141
▁bağlan	-2142
▁Çin	-2143
arken	-2144
1)	-2145
eğin	-2146
▁öner	-2147
▁gec	-2148
▁toplam	-2149
▁ilişkin	-2150
uar	-2151
▁millet	-2152
▁Ana	-2153
cuz	-2154
▁unut	-2155
▁Hotel	-2156
▁saç	-2157
▁otur	-2158
▁isteyen	-2159
larıyla	-2160
▁Yayın	-2161
adığını	-2162
and	-2163
eceğini	-2164
uma	-2165
▁Saat	-2166
▁Tab	-2167
ünden	-2168
▁savaş	-2169
▁sorum	-2170
▁geniş	-2171
▁inş	-2172
▁vak	-2173
YA	-2174
▁Kız	-2175
mm	-2176
▁Sağlık	-2177
▁hüküm	-2178
ört	-2179
erler	-2180
▁aşağı	-2181
▁değildir	-2182
▁çalışma	-2183
adolu	-2184
▁işlet	-2185
enc	-2186
ham	-2187
aln	-2188
ew	-2189
▁Siz	-2190
▁kıy	-2191
70	-2192
▁sizin	-2193
ıda	-2194
abancı	-2195
düğ	-2196
sen	-2197
▁AR	-2198
umlu	-2199
▁rağ	-2200
inci	-2201
esiyle	-2202
okr	-2203
▁malz	-2204
▁parç	-2205
▁Escort	-2206
ektrik	-2207
▁birbir	-2208
▁nak	-2209
▁sok	-2210
▁özellikle	-2211
meden	-2212
▁=	-2213
fır	-2214
ex	-2215
▁01	-2216
ga	-2217
3.	-2218
▁gerekli	-2219
▁örg	-2220
▁yemek	-2221
osu	-2222
iyim	-2223
▁Met	-2224
▁Sohbet	-2225
▁onu	-2226
","	-2227
▁No	-2228
▁Af	-2229
lüğ	-2230
▁kullanıcı	-2231
▁çözüm	-2232
▁kah	-2233
manız	-2234
▁Tarihi	-2235
ull	-2236
meyi	-2237
stafa	-2238
45	-2239
▁aday	-2240
▁boyut	-2241
▁açıl	-2242
▁çıkan	-2243
emin	-2244
▁nedir	-2245
oktor	-2246
▁piyas	-2247
▁Sür	-2248
▁ikinci	-2249
▁Merkezi	-2250
ii	-2251
meli	-2252
▁dolayı	-2253
▁men	-2254
▁sayı	-2255
▁escort	-2256
▁şart	-2257
ses	-2258
gr	-2259
set	-2260
tion	-2261
za	-2262
▁dok	-2263
▁Fr	-2264
▁05	-2265
▁yönetim	-2266
ırken	-2267
▁Alman	-2268
anış	-2269
▁•	-2270
▁sanat	-2271
▁Od	-2272
▁ihtiyaç	-2273
▁alış	-2274
ova	-2275
▁Gön	-2276
▁2011	-2277
▁Hak	-2278
▁bize	-2279
▁Güven	-2280
▁madd	-2281
▁Kam	-2282
▁yarar	-2283
aket	-2284
▁teknik	-2285
▁4.	-2286
▁Ch	-2287
▁rağmen	-2288
▁kamp	-2289
26	-2290
yar	-2291
▁Hizmet	-2292
▁bi	-2293
▁ölç	-2294
▁Arkadaş	-2295
▁Ger	-2296
cret	-2297
▁https	-2298
▁hangi	-2299
▁çar	-2300
luluk	-2301
▁Çalış	-2302
kar	-2303
pit	-2304
▁edin	-2305
▁Mesaj	-2306
▁zarar	-2307
lardır	-2308
▁yaptı	-2309
ton	-2310
işi	-2311
▁Erkek	-2312
▁uğr	-2313
▁Gül	-2314
▁Çünkü	-2315
▁kültür	-2316
▁güncel	-2317
lin	-2318
ınızı	-2319
▁İyi	-2320
▁mevcut	-2321
▁Yardım	-2322
▁40	-2323
LE	-2324
▁:)	-2325
▁hey	-2326
▁pat	-2327
atif	-2328
▁kapsamında	-2329
▁sıcak	-2330
▁teh	-2331
▁Pr	-2332
içek	-2333
▁sayesinde	-2334
▁mesaf	-2335
inc	-2336
▁geliyor	-2337
qu	-2338
alnız	-2339
▁mağ	-2340
▁tep	-2341
▁halk	-2342
▁Dig	-2343
▁sek	-2344
▁istiyor	-2345
▁fayd	-2346
emal	-2347
▁iy	-2348
▁Bilg	-2349
lında	-2350
▁dahil	-2351
▁dakika	-2352
lüm	-2353
form	-2354
▁Samsun	-2355
▁dayan	-2356
▁grup	-2357
zon	-2358
ipar	-2359
asi	-2360
/0	-2361
4.	-2362
ira	-2363
▁burada	-2364
▁oyuncu	-2365
ha	-2366
eşil	-2367
▁Gazet	-2368
▁bakım	-2369
75	-2370
▁AN	-2371
ılım	-2372
▁Hakk	-2373
aza	-2374
▁çeşitli	-2375
▁mis	-2376
sınız	-2377
www	-2378
tay	-2379
▁Boy	-2380
▁Han	-2381
unma	-2382
▁rak	-2383
▁yazı	-2384
▁terör	-2385
▁The	-2386
▁Kö	-2387
▁deney	-2388
▁Tam	-2389
otor	-2390
▁İnsan	-2391
vet	-2392
ırı	-2393
▁olsa	-2394
▁yapı	-2395
▁sürdür	-2396
AV	-2397
ısından	-2398
▁Önc	-2399
▁02	-2400
AĞ	-2401
EC	-2402
▁for	-2403
urk	-2404
▁kamer	-2405
▁kardeş	-2406
LU	-2407
▁Cumhurbaş	-2408
▁sıra	-2409
▁şekl	-2410
▁adım	-2411
gesi	-2412
aşa	-2413
▁gerçekleş	-2414
▁Demir	-2415
ern	-2416
▁yoğun	-2417
iir	-2418
An	-2419
▁web	-2420
▁diyor	-2421
▁Ap	-2422
▁amaç	-2423
▁sahibi	-2424
▁Haberler	-2425
▁gelecek	-2426
ess	-2427
ersonel	-2428
vek	-2429
Lİ	-2430
▁Eğer	-2431
ılığ	-2432
Türk	-2433
▁çıktı	-2434
▁Taş	-2435
▁organ	-2436
mayan	-2437
▁Genç	-2438
▁list	-2439
▁arac	-2440
▁Bank	-2441
▁Sosyal	-2442
çak	-2443
▁yaklaşık	-2444
▁yanı	-2445
▁boyunca	-2446
▁tanım	-2447
▁doğr	-2448
ikay	-2449
▁Detaylı	-2450
▁şehir	-2451
▁Kurulu	-2452
▁part	-2453
▁Çık	-2454
▁it	-2455
estor	-2456
▁dar	-2457
esel	-2458
alarında	-2459
▁satın	-2460
fi	-2461
▁Amer	-2462
▁Nasıl	-2463
▁aldı	-2464
iyah	-2465
▁CHP	-2466
▁konuştu	-2467
ilerine	-2468
amız	-2469
▁ayrı	-2470
medi	-2471
▁Kul	-2472
asay	-2473
ilerini	-2474
▁edil	-2475
▁hava	-2476
▁Dur	-2477
▁2010	-2478
▁kısm	-2479
ült	-2480
▁gazet	-2481
manı	-2482
▁başkan	-2483
ly	-2484
▁uzman	-2485
▁istediğ	-2486
abzon	-2487
yum	-2488
▁dışında	-2489
▁gerekiyor	-2490
▁kas	-2491
▁Mustafa	-2492
ütfen	-2493
her	-2494
mey	-2495
▁kork	-2496
▁net	-2497
▁Bağ	-2498
rafik	-2499
▁iletişim	-2500
▁Bayan	-2501
▁mez	-2502
OS	-2503
▁to	-2504
gili	-2505
▁ulus	-2506
ust	-2507
22	-2508
7.	-2509
lış	-2510
IS	-2511
▁anda	-2512
▁talep	-2513
▁mek	-2514
▁lis	-2515
▁belli	-2516
▁yaşan	-2517
▁Sel	-2518
▁Kür	-2519
▁ortam	-2520
▁Ulus	-2521
liyor	-2522
▁ko	-2523
sı	-2524
▁US	-2525
▁Seç	-2526
likler	-2527
▁üretim	-2528
▁Kim	-2529
▁edecek	-2530
▁tasarım	-2531
arkı	-2532
▁karşılaş	-2533
ee	-2534
▁Sp	-2535
▁Ağ	-2536
▁hatır	-2537
uya	-2538
▁«	-2539
▁00	-2540
▁hale	-2541
larınız	-2542
▁Anadolu	-2543
!!	-2544
izyon	-2545
▁amac	-2546
luğ	-2547
enler	-2548
▁Sar	-2549
▁ister	-2550
▁₺	-2551
▁şöyle	-2552
olojik	-2553
apor	-2554
▁Can	-2555
▁teslim	-2556
▁Çev	-2557
kaç	-2558
yan	-2559
mesini	-2560
▁örnek	-2561
33	-2562
.2016	-2563
▁puan	-2564
▁Bun	-2565
eştir	-2566
▁sebep	-2567
▁bab	-2568
layın	-2569
▁ekran	-2570
▁bulundu	-2571
fak	-2572
lk	-2573
▁başlayan	-2574
our	-2575
ogle	-2576
aması	-2577
tiğini	-2578
▁demek	-2579
dağ	-2580
▁numar	-2581
▁Göster	-2582
▁beklen	-2583
▁fırs	-2584
ayi	-2585
▁durumda	-2586
▁şimdi	-2587
▁beni	-2588
his	-2589
▁başlat	-2590
ts	-2591
▁İçin	-2592
▁olmuş	-2593
▁müşter	-2594
iliği	-2595
▁pazar	-2596
▁Yer	-2597
▁gece	-2598
kem	-2599
▁adı	-2600
▁cam	-2601
ital	-2602
▁Sistem	-2603
▁olacaktır	-2604
▁Tes	-2605
ros	-2606
altı	-2607
isel	-2608
yas	-2609
MA	-2610
▁verilen	-2611
meyen	-2612
elerinin	-2613
6.	-2614
▁cid	-2615
ity	-2616
▁herkes	-2617
bur	-2618
ampiyon	-2619
65	-2620
masının	-2621
elerine	-2622
▁türlü	-2623
▁Proj	-2624
▁ah	-2625
ayla	-2626
▁ham	-2627
sak	-2628
tern	-2629
▁ifad	-2630
▁Ahmet	-2631
▁ederek	-2632
▁kaybet	-2633
eceğiniz	-2634
9,	-2635
ASI	-2636
▁enerj	-2637
ağıt	-2638
▁servis	-2639
▁cihaz	-2640
▁düşük	-2641
▁Müdürlüğü	-2642
ıyı	-2643
44	-2644
▁~	-2645
▁Dön	-2646
gür	-2647
üle	-2648
▁İşte	-2649
▁tip	-2650
▁Millet	-2651
▁kapat	-2652
.,	-2653
▁tespit	-2654
▁sıfır	-2655
▁Ed	-2656
▁prof	-2657
eşik	-2658
78	-2659
▁temsil	-2660
▁sistemi	-2661
eng	-2662
▁sınav	-2663
▁güvenlik	-2664
▁futbol	-2665
wit	-2666
▁Br	-2667
hot	-2668
UT	-2669
▁yapılacak	-2670
▁str	-2671
▁konuda	-2672
▁öğrenc	-2673
▁sol	-2674
▁oran	-2675
▁uygulan	-2676
ipariş	-2677
▁kaliteli	-2678
▁Tan	-2679
▁Ac	-2680
▁Bit	-2681
▁um	-2682
üper	-2683
▁halinde	-2684
.00	-2685
▁doğal	-2686
▁fik	-2687
▁yık	-2688
veriş	-2689
luğu	-2690
▁kötü	-2691
teki	-2692
▁ana	-2693
▁Diy	-2694
LARI	-2695
▁Sin	-2696
▁don	-2697
adem	-2698
▁form	-2699
▁Düz	-2700
▁Sen	-2701
leriyle	-2702
▁teklif	-2703
atürk	-2704
OT	-2705
alara	-2706
▁yaptır	-2707
forman	-2708
▁sezon	-2709
▁sınıf	-2710
▁yarış	-2711
ısını	-2712
lanmış	-2713
▁Cumhuriyet	-2714
son	-2715
IŞ	-2716
▁31	-2717
▁kullanım	-2718
▁Mad	-2719
▁Milli	-2720
adaki	-2721
▁uçak	-2722
avi	-2723
▁yanında	-2724
laştır	-2725
▁Telefon	-2726
▁zaten	-2727
▁ic	-2728
▁Fir	-2729
ala	-2730
▁hastan	-2731
rim	-2732
▁Sor	-2733
▁ettiği	-2734
oogle	-2735
tepe	-2736
bil	-2737
▁nedenle	-2738
▁İngiliz	-2739
LAN	-2740
▁Yönet	-2741
menin	-2742
▁adına	-2743
▁Ham	-2744
▁ann	-2745
▁Göz	-2746
▁çift	-2747
▁muht	-2748
▁Antalya	-2749
▁öğrenciler	-2750
▁artır	-2751
ağa	-2752
med	-2753
mesine	-2754
▁şah	-2755
asayfa	-2756
28	-2757
▁olmaz	-2758
▁kayb	-2759
emizde	-2760
yo	-2761
ord	-2762
onik	-2763
▁Güncelleme	-2764
ner	-2765
▁seçenek	-2766
LIK	-2767
aliz	-2768
▁Pazar	-2769
▁hoş	-2770
▁bes	-2771
▁istiyorum	-2772
▁Büyükşehir	-2773
▁Bugün	-2774
▁Fat	-2775
eksiyon	-2776
▁key	-2777
▁yürüt	-2778
blem	-2779
▁tavs	-2780
▁trans	-2781
azım	-2782
▁dep	-2783
alarını	-2784
▁sağlay	-2785
▁Bursa	-2786
▁olun	-2787
▁gider	-2788
▁HD	-2789
laması	-2790
ukarı	-2791
neği	-2792
ilmiştir	-2793
▁Bakanlığı	-2794
sed	-2795
rol	-2796
▁geçmiş	-2797
▁not	-2798
tul	-2799
▁Kültür	-2800
ser	-2801
adım	-2802
▁kişinin	-2803
embe	-2804
▁benz	-2805
▁varsa	-2806
95	-2807
▁Hem	-2808
▁tart	-2809
asından	-2810
▁izin	-2811
▁end	-2812
▁davran	-2813
Al	-2814
▁03	-2815
ebil	-2816
▁Bal	-2817
ayacak	-2818
▁korum	-2819
▁beğ	-2820
▁60	-2821
▁etkil	-2822
ebilm	-2823
tand	-2824
▁baz	-2825
▁Sonr	-2826
▁Lis	-2827
▁adlı	-2828
▁sürekli	-2829
▁kaf	-2830
▁görüntü	-2831
▁İslam	-2832
▁re	-2833
▁yurt	-2834
ger	-2835
▁nit	-2836
enerbah	-2837
▁polis	-2838
▁Lig	-2839
▁biç	-2840
▁Mec	-2841
▁yum	-2842
▁sırasında	-2843
▁5.	-2844
▁Anasayfa	-2845
▁tüket	-2846
elikle	-2847
▁Sh	-2848
cretsiz	-2849
▁çevir	-2850
▁Un	-2851
▁şeklinde	-2852
üyorum	-2853
gen	-2854
▁vüc	-2855
ımıza	-2856
▁öğretmen	-2857
Ar	-2858
▁başarılı	-2859
▁Diğer	-2860
▁hukuk	-2861
▁Mark	-2862
▁Ses	-2863
▁kuruluş	-2864
▁Soru	-2865
ecektir	-2866
▁Sah	-2867
etik	-2868
▁Kah	-2869
▁anlay	-2870
ediy	-2871
▁adres	-2872
ınıza	-2873
ladığ	-2874
mayın	-2875
LERİ	-2876
1,	-2877
tör	-2878
▁günlük	-2879
.2017	-2880
▁kalan	-2881
▁gar	-2882
▁ilaç	-2883
▁asker	-2884
▁Cam	-2885
US	-2886
ous	-2887
izli	-2888
ımda	-2889
ladığı	-2890
miyor	-2891
ai	-2892
▁Kitap	-2893
▁seviy	-2894
▁gol	-2895
latform	-2896
▁bank	-2897
▁Gönder	-2898
▁yaptığ	-2899
▁makin	-2900
▁07	-2901
▁çoc	-2902
TR	-2903
9.	-2904
▁ıs	-2905
ılığı	-2906
▁hastalık	-2907
▁Bölüm	-2908
▁Program	-2909
lerce	-2910
▁kelim	-2911
▁mobil	-2912
▁insanlar	-2913
▁iler	-2914
sp	-2915
▁bal	-2916
▁giy	-2917
ân	-2918
resi	-2919
rek	-2920
inizde	-2921
▁aktar	-2922
▁Kab	-2923
▁sonucu	-2924
▁sonrası	-2925
abiliyor	-2926
▁neler	-2927
tak	-2928
▁Var	-2929
▁{	-2930
inç	-2931
▁Yol	-2932
▁Part	-2933
dal	-2934
▁AD	-2935
ısına	-2936
niyet	-2937
▁Frans	-2938
allesi	-2939
ekor	-2940
▁öldür	-2941
mızı	-2942
nam	-2943
emez	-2944
▁üniversit	-2945
ümüş	-2946
▁yalnız	-2947
98	-2948
▁açısından	-2949
▁Sanat	-2950
▁gi	-2951
ceğ	-2952
▁sayısı	-2953
eşiktaş	-2954
▁muh	-2955
▁kart	-2956
elerinde	-2957
dak	-2958
▁tec	-2959
▁vardı	-2960
▁Med	-2961
üslüm	-2962
36	-2963
38	-2964
▁sağlan	-2965
witter	-2966
▁Dav	-2967
liye	-2968
ören	-2969
▁Güzel	-2970
bakan	-2971
▁ayar	-2972
ımızda	-2973
▁Uygul	-2974
laka	-2975
▁bilgisayar	-2976
▁sig	-2977
▁dosy	-2978
▁örgüt	-2979
esindeki	-2980
EB	-2981
unan	-2982
▁öyle	-2983
▁Suriye	-2984
▁silah	-2985
meleri	-2986
makta	-2987
▁düzenlenen	-2988
▁kamu	-2989
▁kullanılan	-2990
▁isim	-2991
emmel	-2992
▁tartış	-2993
▁ayrıca	-2994
ansı	-2995
ebi	-2996
imizde	-2997
▁fiyatları	-2998
▁kum	-2999
▁birkaç	-3000
▁derece	-3001
üncü	-3002
▁merak	-3003
▁dal	-3004
▁basın	-3005
abet	-3006
▁yapar	-3007
üme	-3008
▁Çar	-3009
yen	-3010
▁yem	-3011
▁Bakanı	-3012
▁Eş	-3013
ımızı	-3014
34	-3015
▁35	-3016
▁ele	-3017
▁yaptık	-3018
▁Facebook	-3019
32	-3020
▁vermek	-3021
ke	-3022
▁başvuru	-3023
▁Yüz	-3024
ÜK	-3025
ÜM	-3026
int	-3027
▁Böyle	-3028
iliğ	-3029
ersiz	-3030
ÜL	-3031
▁dolar	-3032
öv	-3033
istik	-3034
▁Yet	-3035
▁kent	-3036
▁hizmeti	-3037
▁veri	-3038
▁ruh	-3039
▁sağlamak	-3040
▁Hastan	-3041
▁ciddi	-3042
mıyor	-3043
▁yapıyor	-3044
▁dam	-3045
▁Atatürk	-3046
▁yanlış	-3047
.)	-3048
▁çünkü	-3049
▁yüzden	-3050
▁meydana	-3051
hend	-3052
ino	-3053
imin	-3054
▁süreç	-3055
▁KAR	-3056
▁ederim	-3057
çev	-3058
▁itibaren	-3059
▁kaz	-3060
alatasar	-3061
▁orta	-3062
▁dost	-3063
▁ucuz	-3064
▁2009	-3065
engin	-3066
Ad	-3067
ilt	-3068
▁06	-3069
▁problem	-3070
▁istedi	-3071
taki	-3072
▁ona	-3073
▁görüntül	-3074
alatasaray	-3075
▁güçlü	-3076
uru	-3077
düğü	-3078
▁Digit	-3079
▁tamamen	-3080
▁Mas	-3081
▁ir	-3082
anya	-3083
▁alınan	-3084
":"	-3085
▁Q	-3086
out	-3087
▁min	-3088
cılık	-3089
OĞ	-3090
çiler	-3091
▁karak	-3092
rag	-3093
▁söyl	-3094
▁Kıs	-3095
ükemmel	-3096
▁miktar	-3097
IB	-3098
▁memnun	-3099
▁Az	-3100
larım	-3101
▁sonunda	-3102
we	-3103
ınızda	-3104
pek	-3105
ünüz	-3106
▁OL	-3107
▁Gök	-3108
▁verir	-3109
▁yerde	-3110
eyn	-3111
▁Dol	-3112
▁Mut	-3113
▁Yan	-3114
ullah	-3115
alarının	-3116
▁Müz	-3117
▁video	-3118
asıyla	-3119
TE	-3120
madı	-3121
▁tanıt	-3122
▁günde	-3123
▁Haf	-3124
▁akıl	-3125
▁TV	-3126
▁Paz	-3127
▁okuy	-3128
▁Mur	-3129
▁ayak	-3130
▁edilir	-3131
rah	-3132
▁belg	-3133
inans	-3134
▁bulunmaktadır	-3135
ze	-3136
▁doktor	-3137
▁sayılı	-3138
........	-3139
▁edebilir	-3140
▁personel	-3141
▁Teknik	-3142
2,	-3143
▁Rusya	-3144
mamış	-3145
▁Bor	-3146
▁nok	-3147
▁kıl	-3148
▁bulunduğu	-3149
▁mutlu	-3150
▁işaret	-3151
▁Uzun	-3152
▁Trabzon	-3153
▁arasındaki	-3154
rac	-3155
▁yıllık	-3156
ilerek	-3157
ÜRK	-3158
▁Görün	-3159
iklet	-3160
▁uyar	-3161
▁Fak	-3162
27	-3163
ult	-3164
sim	-3165
lulu	-3166
▁Sey	-3167
ail	-3168
▁Servisi	-3169
vekili	-3170
▁okun	-3171
esyon	-3172
enerbahçe	-3173
leşme	-3174
96	-3175
ınca	-3176
▁eksik	-3177
ersin	-3178
▁siteleri	-3179
lenmesi	-3180
eder	-3181
▁Müdürü	-3182
▁ap	-3183
▁bebek	-3184
▁İlan	-3185
dük	-3186
alama	-3187
▁emek	-3188
hone	-3189
▁test	-3190
afir	-3191
TA	-3192
rika	-3193
▁ediyorum	-3194
erçev	-3195
▁Aydın	-3196
ildiği	-3197
ezerv	-3198
▁Kılı	-3199
▁tedavi	-3200
indow	-3201
ÖR	-3202
▁fakat	-3203
▁kredi	-3204
gar	-3205
▁malzem	-3206
allah	-3207
▁ilan	-3208
100	-3209
▁sizlere	-3210
▁kendini	-3211
▁hap	-3212
▁performan	-3213
▁üye	-3214
▁başarı	-3215
37	-3216
are	-3217
▁Kor	-3218
▁DE	-3219
▁ölüm	-3220
▁verdiği	-3221
▁Ef	-3222
▁Cumhurbaşkanı	-3223
ilendir	-3224
▁Yönetim	-3225
________	-3226
▁yabancı	-3227
ry	-3228
lıkla	-3229
▁gerçekten	-3230
▁tarif	-3231
▁defa	-3232
▁türk	-3233
▁kişiler	-3234
atur	-3235
▁durumu	-3236
▁vaz	-3237
5.	-3238
▁Gazi	-3239
);	-3240
rem	-3241
▁yanıt	-3242
▁sizi	-3243
esyonel	-3244
48	-3245
tandart	-3246
▁Ber	-3247
uklu	-3248
AF	-3249
▁çarp	-3250
▁tesis	-3251
▁1,	-3252
ülen	-3253
▁gru	-3254
▁normal	-3255
etin	-3256
antaj	-3257
RO	-3258
▁arası	-3259
lev	-3260
alarına	-3261
▁yılı	-3262
opüler	-3263
▁ödeme	-3264
ikayet	-3265
▁operasyon	-3266
tere	-3267
lamış	-3268
▁yoktur	-3269
ınt	-3270
▁04	-3271
▁etkili	-3272
malıdır	-3273
ell	-3274
▁arada	-3275
▁katkı	-3276
▁Çek	-3277
yada	-3278
▁alıyor	-3279
▁politik	-3280
▁Yani	-3281
liğini	-3282
▁poz	-3283
▁ödül	-3284
▁aldığı	-3285
kiler	-3286
lılık	-3287
rom	-3288
▁kural	-3289
akkabı	-3290
tiğimiz	-3291
▁Cevapla	-3292
▁seyahat	-3293
▁Rom	-3294
▁Tat	-3295
▁risk	-3296
▁koşul	-3297
hi	-3298
gam	-3299
▁fırsat	-3300
▁bol	-3301
▁online	-3302
inizin	-3303
▁Kemal	-3304
geç	-3305
mamız	-3306
▁hast	-3307
▁Cuma	-3308
aşır	-3309
▁ted	-3310
UK	-3311
▁sene	-3312
iddet	-3313
▁içeri	-3314
▁milyar	-3315
▁yaşayan	-3316
▁yazar	-3317
yıl	-3318
▁6.	-3319
land	-3320
▁Dil	-3321
▁Şimdi	-3322
▁BİR	-3323
▁dört	-3324
▁kayn	-3325
▁Sak	-3326
▁kuş	-3327
▁(1)	-3328
▁hayvan	-3329
lisi	-3330
▁mücadele	-3331
▁ekonomik	-3332
ılıyor	-3333
▁Mahallesi	-3334
rr	-3335
▁Kend	-3336
▁cinsel	-3337
▁Bat	-3338
▁Giriş	-3339
ple	-3340
▁Fiyatları	-3341
▁nerede	-3342
sas	-3343
▁op	-3344
▁ülke	-3345
ladık	-3346
▁edeb	-3347
▁Halk	-3348
▁altına	-3349
iber	-3350
▁yor	-3351
laj	-3352
▁2008	-3353
amanı	-3354
▁saldırı	-3355
ood	-3356
▁cep	-3357
▁deniz	-3358
irk	-3359
say	-3360
▁Dair	-3361
ene	-3362
▁hatta	-3363
▁yeterli	-3364
mail	-3365
▁haline	-3366
raman	-3367
lâ	-3368
▁yolu	-3369
▁Üy	-3370
lenmiş	-3371
3,	-3372
▁oluşan	-3373
▁özellik	-3374
▁amacıyla	-3375
best	-3376
ÖN	-3377
itimi	-3378
▁tarz	-3379
97	-3380
eceğiz	-3381
üph	-3382
osta	-3383
acağım	-3384
mamak	-3385
.2018	-3386
SK	-3387
.200	-3388
irüs	-3389
ımızın	-3390
▁önceki	-3391
▁başına	-3392
uyorum	-3393
▁Fakat	-3394
▁bilim	-3395
▁Küçük	-3396
larınızı	-3397
ons	-3398
enüz	-3399
▁yeri	-3400
2020	-3401
▁sürec	-3402
ERİ	-3403
▁Kir	-3404
yı	-3405
add	-3406
▁Sır	-3407
▁Almanya	-3408
▁buluş	-3409
ond	-3410
abilmek	-3411
seniz	-3412
▁aslında	-3413
▁düzey	-3414
▁teknoloj	-3415
▁ateş	-3416
alıdır	-3417
▁Val	-3418
▁nef	-3419
▁merkezi	-3420
''	-3421
46	-3422
▁başlay	-3423
▁yere	-3424
▁Tay	-3425
▁sırada	-3426
▁oğ	-3427
▁Bayram	-3428
▁Aynı	-3429
iyer	-3430
▁beyaz	-3431
bay	-3432
▁buna	-3433
oo	-3434
▁la	-3435
ete	-3436
8.	-3437
▁sonuc	-3438
▁lütfen	-3439
rip	-3440
▁And	-3441
EZ	-3442
▁esn	-3443
▁gül	-3444
ilerinin	-3445
ku	-3446
▁mücadel	-3447
CI	-3448
▁90	-3449
.2019	-3450
OP	-3451
▁kop	-3452
▁Özellikle	-3453
▁ken	-3454
▁do	-3455
ema	-3456
▁okum	-3457
▁Den	-3458
▁mar	-3459
kili	-3460
▁pas	-3461
▁Kurul	-3462
alim	-3463
IY	-3464
31	-3465
İYE	-3466
ron	-3467
▁nes	-3468
▁Osmanlı	-3469
▁mesafede	-3470
▁by	-3471
tic	-3472
atej	-3473
▁şeyler	-3474
▁<	-3475
sit	-3476
▁ye	-3477
▁rapor	-3478
ahtar	-3479
▁görmek	-3480
▁Hol	-3481
ısının	-3482
▁kanal	-3483
▁Google	-3484
▁Dış	-3485
evizyon	-3486
▁soğ	-3487
izik	-3488
▁verilm	-3489
tuk	-3490
ach	-3491
▁sert	-3492
▁insanların	-3493
rin	-3494
▁sel	-3495
▁chat	-3496
▁zorunda	-3497
▁Sın	-3498
▁Üst	-3499
21	-3500
▁resmi	-3501
▁Parça	-3502
▁oda	-3503
▁pan	-3504
Bir	-3505
▁fır	-3506
adi	-3507
▁Düny	-3508
ates	-3509
▁araya	-3510
▁götür	-3511
▁isten	-3512
ela	-3513
▁onay	-3514
▁Pazartesi	-3515
▁fak	-3516
▁ticaret	-3517
▁yana	-3518
▁Beşiktaş	-3519
yal	-3520
seri	-3521
▁Tasar	-3522
uzey	-3523
dığında	-3524
▁500	-3525
▁dile	-3526
▁İnternet	-3527
▁Digiturk	-3528
▁hala	-3529
unc	-3530
▁akşam	-3531
neğin	-3532
fet	-3533
▁katılım	-3534
▁be	-3535
▁benzer	-3536
▁TR	-3537
ona	-3538
▁Not	-3539
uzur	-3540
▁Fil	-3541
▁yada	-3542
▁ortal	-3543
En	-3544
meniz	-3545
▁eğer	-3546
▁sp	-3547
▁sem	-3548
hendis	-3549
▁kararı	-3550
▁öğ	-3551
to	-3552
onya	-3553
▁sağlar	-3554
▁izley	-3555
uyoruz	-3556
▁Hayat	-3557
▁sunul	-3558
▁beş	-3559
▁bizi	-3560
dev	-3561
▁Kı	-3562
4,	-3563
▁gay	-3564
cılar	-3565
88	-3566
ultan	-3567
elidir	-3568
muştur	-3569
▁konum	-3570
ahim	-3571
hale	-3572
indows	-3573
▁bilgileri	-3574
▁dünyanın	-3575
▁45	-3576
▁Bin	-3577
▁fab	-3578
▁arama	-3579
urum	-3580
▁belki	-3581
▁Araştır	-3582
▁Altın	-3583
▁müşteri	-3584
▁Mev	-3585
▁BAŞ	-3586
ılacak	-3587
▁İÇ	-3588
▁belirten	-3589
ain	-3590
▁kalk	-3591
▁lazım	-3592
ebilecek	-3593
▁fil	-3594
mıştı	-3595
▁dakik	-3596
▁Ücretsiz	-3597
▁yapılır	-3598
ight	-3599
ice	-3600
eks	-3601
lerdir	-3602
7,	-3603
▁onlar	-3604
▁sur	-3605
umsuz	-3606
roid	-3607
▁Sab	-3608
edek	-3609
▁Model	-3610
▁Zaman	-3611
IT	-3612
sh	-3613
▁gal	-3614
Tİ	-3615
-1	-3616
▁Galatasaray	-3617
own	-3618
lığını	-3619
aka	-3620
39	-3621
▁İndir	-3622
▁Toptan	-3623
▁başlan	-3624
▁Yas	-3625
elt	-3626
rum	-3627
▁etmiş	-3628
KK	-3629
arik	-3630
▁Müslüm	-3631
▁önünde	-3632
omp	-3633
▁veriyor	-3634
▁rol	-3635
▁elektrik	-3636
les	-3637
acılık	-3638
tika	-3639
▁Derneği	-3640
▁sipariş	-3641
▁mutlaka	-3642
mur	-3643
▁beri	-3644
masında	-3645
▁duyur	-3646
▁çerçev	-3647
▁Re	-3648
ezi	-3649
▁paket	-3650
▁kims	-3651
▁GÜN	-3652
▁dönemde	-3653
▁çal	-3654
▁us	-3655
▁ef	-3656
▁Bilgi	-3657
▁tavsiye	-3658
▁taşım	-3659
▁def	-3660
▁Mobil	-3661
endik	-3662
▁Satış	-3663
▁sabah	-3664
▁uygulama	-3665
▁derec	-3666
▁eğlen	-3667
▁ettik	-3668
▁çocuğ	-3669
▁zengin	-3670
▁ayında	-3671
▁dök	-3672
▁du	-3673
▁bağım	-3674
mut	-3675
▁Koca	-3676
▁eylem	-3677
▁sonrasında	-3678
▁Okul	-3679
▁tatil	-3680
▁olmadığını	-3681
▁AY	-3682
▁içerik	-3683
uzu	-3684
▁düğ	-3685
▁toprak	-3686
▁YAP	-3687
▁firmalar	-3688
▁Fenerbahçe	-3689
POR	-3690
▁imz	-3691
iyel	-3692
ırım	-3693
▁hayal	-3694
▁Sadece	-3695
obüs	-3696
uro	-3697
dırım	-3698
▁söyley	-3699
İD	-3700
▁80	-3701
▁ileri	-3702
orn	-3703
▁soy	-3704
UZ	-3705
iydi	-3706
arbak	-3707
▁senin	-3708
dam	-3709
âr	-3710
ışma	-3711
bal	-3712
▁sağlıklı	-3713
ock	-3714
ÜZ	-3715
ayısıyla	-3716
▁çat	-3717
▁Ders	-3718
▁Oda	-3719
▁düşünc	-3720
▁hüc	-3721
oto	-3722
▁eser	-3723
▁Ticaret	-3724
▁keş	-3725
▁reklam	-3726
ded	-3727
▁arkadaşlık	-3728
▁Ülk	-3729
▁Benim	-3730
85	-3731
▁del	-3732
:30	-3733
▁sayıda	-3734
▁devr	-3735
edeki	-3736
▁artış	-3737
▁müzik	-3738
76	-3739
▁yaşanan	-3740
ndan	-3741
▁cev	-3742
▁Karş	-3743
▁Mon	-3744
▁Çan	-3745
200	-3746
sızlık	-3747
▁Do	-3748
▁Sı	-3749
OB	-3750
letişim	-3751
▁aşk	-3752
▁yapılması	-3753
yap	-3754
işleri	-3755
▁müda	-3756
▁söylem	-3757
▁zorun	-3758
ığın	-3759
▁Gerçek	-3760
▁açıklama	-3761
LİK	-3762
haba	-3763
▁Şeh	-3764
▁Of	-3765
▁eg	-3766
▁eleştir	-3767
▁Başbakan	-3768
▁içine	-3769
▁edilmesi	-3770
▁Kut	-3771
lenir	-3772
ınar	-3773
aklı	-3774
▁Düş	-3775
-200	-3776
▁kurtul	-3777
▁Web	-3778
ment	-3779
▁kullanarak	-3780
oca	-3781
▁kok	-3782
▁yararlan	-3783
▁arttır	-3784
▁birey	-3785
▁detay	-3786
▁sefer	-3787
▁yapacak	-3788
▁Be	-3789
▁Dir	-3790
▁işi	-3791
▁Şah	-3792
tel	-3793
▁sağlam	-3794
▁otomatik	-3795
esiz	-3796
ijital	-3797
isa	-3798
▁ayır	-3799
▁yaparak	-3800
▁hazırlan	-3801
▁ceza	-3802
▁ilgi	-3803
▁Bebek	-3804
▁af	-3805
▁Yazar	-3806
▁girişim	-3807
▁hayatını	-3808
▁kurtar	-3809
▁başında	-3810
▁''	-3811
unları	-3812
▁kampany	-3813
▁Beyaz	-3814
▁idar	-3815
▁tehlik	-3816
çin	-3817
▁Mat	-3818
▁bulunuyor	-3819
▁Yılmaz	-3820
94	-3821
▁Ban	-3822
▁Vak	-3823
ME	-3824
▁heyec	-3825
ire	-3826
.2015	-3827
cisi	-3828
▁Renk	-3829
▁bilet	-3830
▁olursa	-3831
SS	-3832
▁çiçek	-3833
▁Ex	-3834
▁azal	-3835
▁Şehir	-3836
ektronik	-3837
▁indirim	-3838
▁yolc	-3839
▁Turk	-3840
▁yapıldı	-3841
▁dolu	-3842
▁Adana	-3843
şamba	-3844
ıc	-3845
▁Önceki	-3846
▁mat	-3847
▁taşın	-3848
▁hesab	-3849
arbakır	-3850
▁Nur	-3851
bey	-3852
▁madde	-3853
oft	-3854
▁70	-3855
▁Eski	-3856
▁fiyatı	-3857
▁İlçe	-3858
▁Sa	-3859
▁olmadığı	-3860
şembe	-3861
oun	-3862
ayıf	-3863
omet	-3864
stag	-3865
▁Tah	-3866
▁Yok	-3867
ediler	-3868
▁mon	-3869
liler	-3870
sk	-3871
▁arz	-3872
arlar	-3873
▁alım	-3874
▁motor	-3875
▁alanında	-3876
▁Hava	-3877
66	-3878
▁Ram	-3879
org	-3880
amış	-3881
▁gerektiğini	-3882
ress	-3883
ane	-3884
▁gerekmektedir	-3885
▁hikay	-3886
▁özgür	-3887
▁Rec	-3888
ube	-3889
▁ürünleri	-3890
▁dağ	-3891
stanbul	-3892
▁şiddet	-3893
üstü	-3894
işehir	-3895
▁toplantı	-3896
▁şiir	-3897
Türkiye	-3898
▁alacak	-3899
▁Şu	-3900
▁Cen	-3901
▁Iş	-3902
▁Dak	-3903
hane	-3904
▁çab	-3905
▁Str	-3906
▁içi	-3907
▁doldur	-3908
aa	-3909
▁durumunda	-3910
3)	-3911
▁Yen	-3912
ox	-3913
▁Gar	-3914
eyim	-3915
▁ettiğ	-3916
▁İL	-3917
▁Birliği	-3918
▁Savaş	-3919
larımızın	-3920
MAN	-3921
▁yoksa	-3922
▁New	-3923
▁Köy	-3924
▁ara	-3925
▁yandan	-3926
terek	-3927
▁değerli	-3928
mür	-3929
▁Öğren	-3930
▁Amerika	-3931
▁hediye	-3932
ayıcı	-3933
▁aray	-3934
▁ünlü	-3935
▁7.	-3936
▁henüz	-3937
▁!	-3938
▁bed	-3939
antep	-3940
rail	-3941
▁emin	-3942
elerden	-3943
▁kapı	-3944
TL	-3945
zz	-3946
▁fon	-3947
▁Dest	-3948
▁kategor	-3949
ETÖ	-3950
▁Kiş	-3951
▁alır	-3952
▁Murat	-3953
EŞ	-3954
▁tabi	-3955
▁nokta	-3956
ati	-3957
▁te	-3958
▁halde	-3959
▁10.	-3960
▁kür	-3961
▁Sonraki	-3962
▁cok	-3963
77	-3964
▁Ma	-3965
adır	-3966
ılmaz	-3967
▁Bazı	-3968
estiv	-3969
▁Burada	-3970
▁Orta	-3971
edava	-3972
▁bölgesinde	-3973
▁çalışmaları	-3974
köy	-3975
ith	-3976
▁avantaj	-3977
eliğ	-3978
▁taşıy	-3979
▁mekan	-3980
İn	-3981
▁bat	-3982
yn	-3983
▁mec	-3984
türk	-3985
▁aylık	-3986
▁derin	-3987
▁karakter	-3988
▁Uluslararası	-3989
▁fikir	-3990
TI	-3991
ace	-3992
▁lar	-3993
ick	-3994
▁Kart	-3995
▁akl	-3996
▁süt	-3997
|0	-3998
ect	-3999
alandı	-4000
▁iptal	-4001
▁aşam	-4002
▁altın	-4003
▁gide	-4004
ivil	-4005
))	-4006
▁vurgul	-4007
▁demokr	-4008
▁hoc	-4009
▁servisi	-4010
▁bitir	-4011
},	-4012
usun	-4013
▁Kürt	-4014
▁ihtiyac	-4015
daş	-4016
utan	-4017
▁siyasi	-4018
paşa	-4019
▁Otom	-4020
acağınız	-4021
gör	-4022
eyle	-4023
ildiğ	-4024
duğunu	-4025
▁başlık	-4026
dıktan	-4027
▁uluslararası	-4028
▁ban	-4029
Ben	-4030
▁basit	-4031
.05	-4032
ümüzde	-4033
▁rom	-4034
▁tecr	-4035
var	-4036
▁arayan	-4037
lıdır	-4038
▁Ekonom	-4039
ive	-4040
ill	-4041
-3	-4042
▁Nak	-4043
▁8.	-4044
▁0,	-4045
▁İST	-4046
iya	-4047
leniyor	-4048
tiler	-4049
DI	-4050
tığını	-4051
ağan	-4052
▁resim	-4053
▁www	-4054
▁hayır	-4055
▁platform	-4056
ıyorlar	-4057
lerinizi	-4058
mis	-4059
▁şar	-4060
▁Hakkında	-4061
ban	-4062
▁Yardımcısı	-4063
eygam	-4064
▁site	-4065
▁Twitter	-4066
diler	-4067
▁prot	-4068
üyle	-4069
▁oku	-4070
iciler	-4071
▁ilçesinde	-4072
▁Evet	-4073
▁Yazı	-4074
▁uçuş	-4075
İH	-4076
▁BİL	-4077
▁işe	-4078
ong	-4079
▁özellikleri	-4080
▁İliş	-4081
▁hafif	-4082
▁yaşındaki	-4083
▁Fatih	-4084
▁Pas	-4085
LA	-4086
▁Güney	-4087
▁lider	-4088
mada	-4089
▁taz	-4090
ilebilir	-4091
gü	-4092
▁Süper	-4093
dit	-4094
▁açıklamada	-4095
▁enerji	-4096
▁şüph	-4097
ERS	-4098
▁Din	-4099
talık	-4100
▁Fakült	-4101
Dİ	-4102
▁lim	-4103
▁şeyi	-4104
▁yapmış	-4105
▁dışı	-4106
mekte	-4107
▁performans	-4108
tadan	-4109
▁İN	-4110
ue	-4111
▁Le	-4112
▁İki	-4113
CE	-4114
▁alışveriş	-4115
▁ta	-4116
başı	-4117
erik	-4118
▁Kit	-4119
▁ediyoruz	-4120
arım	-4121
düm	-4122
▁tutuk	-4123
▁kadro	-4124
sat	-4125
▁alanda	-4126
.09	-4127
▁ÖZ	-4128
lığa	-4129
▁Sitesi	-4130
▁diş	-4131
▁toplant	-4132
▁kendisine	-4133
kol	-4134
arya	-4135
▁İngiltere	-4136
ezervasyon	-4137
86	-4138
amet	-4139
▁Günü	-4140
▁istediğiniz	-4141
▁Bankası	-4142
üny	-4143
▁De	-4144
▁İŞ	-4145
▁oyunu	-4146
▁alarak	-4147
▁Cez	-4148
lediği	-4149
▁Kategor	-4150
brıs	-4151
▁Bunu	-4152
ALAR	-4153
▁Dik	-4154
▁profesyonel	-4155
-5	-4156
▁gösteren	-4157
lor	-4158
ks	-4159
lari	-4160
▁kesinlikle	-4161
sta	-4162
bise	-4163
tarı	-4164
▁kavram	-4165
ert	-4166
oya	-4167
▁başta	-4168
▁transfer	-4169
ıldığı	-4170
▁Çarşamba	-4171
eygamber	-4172
EH	-4173
▁yukarı	-4174
▁Hep	-4175
▁alanı	-4176
▁proje	-4177
8,	-4178
giler	-4179
elerinden	-4180
lığın	-4181
kal	-4182
par	-4183
▁Mac	-4184
▁davet	-4185
keri	-4186
liyat	-4187
ml	-4188
xt	-4189
▁lira	-4190
▁Cem	-4191
▁Odası	-4192
öğr	-4193
▁Gerek	-4194
▁sorunu	-4195
▁İm	-4196
▁ışık	-4197
▁Perşembe	-4198
asit	-4199
fı	-4200
▁kaş	-4201
▁yans	-4202
-10	-4203
▁Balık	-4204
▁Port	-4205
omb	-4206
illi	-4207
▁Yıldırım	-4208
ome	-4209
▁Konya	-4210
▁Güvenlik	-4211
▁ER	-4212
▁II	-4213
▁sokak	-4214
▁Alanlar	-4215
liğinde	-4216
▁Araç	-4217
▁İran	-4218
layarak	-4219
▁Pat	-4220
▁aile	-4221
▁çap	-4222
▁şehit	-4223
lima	-4224
▁Sek	-4225
▁Yeşil	-4226
▁yıldız	-4227
▁Bl	-4228
▁Nedir	-4229
▁Hüs	-4230
▁bekl	-4231
DEN	-4232
.10	-4233
▁Kurum	-4234
gal	-4235
▁Gür	-4236
▁yayım	-4237
▁yavaş	-4238
▁Bek	-4239
astik	-4240
▁des	-4241
▁kaydet	-4242
▁Salı	-4243
ılarak	-4244
...]	-4245
▁müdür	-4246
icari	-4247
LAM	-4248
47	-4249
demir	-4250
get	-4251
lığına	-4252
▁hayata	-4253
▁bon	-4254
▁edeceğ	-4255
▁kimse	-4256
▁hizmetleri	-4257
▁sonu	-4258
deniz	-4259
49	-4260
.11	-4261
emen	-4262
illa	-4263
▁tane	-4264
▁anne	-4265
▁sap	-4266
▁duvar	-4267
lanması	-4268
ech	-4269
lerim	-4270
▁Çelik	-4271
▁**	-4272
▁Teş	-4273
.08	-4274
▁İkinci	-4275
▁programı	-4276
▁EN	-4277
cilik	-4278
▁olumsuz	-4279
▁post	-4280
▁yetiş	-4281
▁cen	-4282
▁TÜRK	-4283
▁sana	-4284
▁ederiz	-4285
▁tahmin	-4286
--------	-4287
yse	-4288
▁Yat	-4289
▁şans	-4290
.06	-4291
▁harc	-4292
▁İngilizce	-4293
eytin	-4294
▁aşağıdaki	-4295
ABER	-4296
iew	-4297
▁kaldı	-4298
▁duygu	-4299
▁vb	-4300
▁İnş	-4301
nden	-4302
▁huzur	-4303
▁Kara	-4304
▁sıkıntı	-4305
ılmıştır	-4306
▁imkan	-4307
meni	-4308
▁verildi	-4309
çesi	-4310
TM	-4311
düz	-4312
.07	-4313
▁day	-4314
▁iddia	-4315
▁Dakika	-4316
▁zev	-4317
anız	-4318
▁Cin	-4319
29	-4320
eliyat	-4321
▁onları	-4322
▁belirtti	-4323
▁mükemmel	-4324
pe	-4325
▁Çağ	-4326
▁şif	-4327
▁Saç	-4328
era	-4329
▁Mic	-4330
▁Chat	-4331
stagram	-4332
▁Yıldız	-4333
▁nda	-4334
ary	-4335
ilim	-4336
âh	-4337
▁otomobil	-4338
▁medya	-4339
▁36	-4340
üyoruz	-4341
▁karşısında	-4342
▁arkadaşlar	-4343
▁enf	-4344
▁0|0	-4345
▁Müş	-4346
▁piş	-4347
▁Windows	-4348
▁Sil	-4349
▁Toplam	-4350
▁sonraki	-4351
▁Park	-4352
▁belirterek	-4353
▁KON	-4354
şey	-4355
age	-4356
leyici	-4357
EF	-4358
▁aldığ	-4359
▁0.	-4360
anışman	-4361
▁İletişim	-4362
▁Reh	-4363
dikleri	-4364
▁May	-4365
▁sahiptir	-4366
brahim	-4367
▁konut	-4368
▁düşür	-4369
▁yerinde	-4370
▁kuv	-4371
▁olmay	-4372
▁iP	-4373
▁gören	-4374
.04	-4375
con	-4376
▁bunlar	-4377
▁yerel	-4378
▁Mus	-4379
▁Bet	-4380
gıç	-4381
asın	-4382
▁açıkladı	-4383
▁Sok	-4384
▁lisans	-4385
uldu	-4386
▁kendine	-4387
▁ba	-4388
▁olma	-4389
.02	-4390
▁gaz	-4391
▁İk	-4392
▁Li	-4393
▁Bizim	-4394
▁onların	-4395
OC	-4396
larca	-4397
▁Se	-4398
▁Sanayi	-4399
▁işte	-4400
▁harika	-4401
▁Doğu	-4402
▁Cumartesi	-4403
▁keyif	-4404
eceğim	-4405
eyiz	-4406
▁birisi	-4407
▁odaları	-4408
▁sağlayan	-4409
▁Hiç	-4410
ulması	-4411
▁doğum	-4412
▁çocuklar	-4413
▁borç	-4414
▁önüne	-4415
▁asla	-4416
▁AKP	-4417
▁başlar	-4418
▁gr	-4419
maması	-4420
▁filmi	-4421
ekim	-4422
ish	-4423
liğe	-4424
▁karış	-4425
uf	-4426
iyatro	-4427
ısınız	-4428
amay	-4429
▁Kaç	-4430
▁öğrenci	-4431
▁Car	-4432
▁Cas	-4433
▁Sav	-4434
▁kem	-4435
kenin	-4436
▁Erz	-4437
lanır	-4438
imar	-4439
▁şarkı	-4440
nik	-4441
▁giden	-4442
iği	-4443
55	-4444
izasyon	-4445
emiş	-4446
ator	-4447
▁balık	-4448
▁genellikle	-4449
▁psik	-4450
sizlik	-4451
▁parça	-4452
▁sürede	-4453
▁ettir	-4454
leriniz	-4455
▁esas	-4456
▁güneş	-4457
ımın	-4458
ILI	-4459
▁yiy	-4460
▁Şek	-4461
▁çoğu	-4462
▁konuk	-4463
lardaki	-4464
udi	-4465
usunu	-4466
▁Sultan	-4467
▁Pan	-4468
ahmet	-4469
▁restor	-4470
▁bende	-4471
▁işlemi	-4472
los	-4473
▁ez	-4474
▁Temiz	-4475
dıkları	-4476
▁belediye	-4477
▁vit	-4478
▁elem	-4479
ısır	-4480
▁hisset	-4481
▁yıldır	-4482
mişti	-4483
▁Kılıç	-4484
ELİ	-4485
▁Moda	-4486
▁evlilik	-4487
▁Canlı	-4488
▁Güneş	-4489
-4	-4490
▁kış	-4491
▁bundan	-4492
▁Diz	-4493
▁Siyah	-4494
▁soruştur	-4495
elerle	-4496
▁almış	-4497
▁kazandır	-4498
pt	-4499
▁Con	-4500
▁kod	-4501
▁park	-4502
▁Kıbrıs	-4503
▁numarası	-4504
="	-4505
alle	-4506
▁Milletvekili	-4507
sur	-4508
erseniz	-4509
▁Kaynak	-4510
▁Sesli	-4511
orex	-4512
▁serbest	-4513
▁sona	-4514
diğiniz	-4515
racat	-4516
▁gur	-4517
-19	-4518
▁takdir	-4519
▁SAN	-4520
,00	-4521
▁bence	-4522
isinden	-4523
▁nüf	-4524
▁Neden	-4525
▁aydın	-4526
▁Peki	-4527
▁baskı	-4528
adet	-4529
▁döv	-4530
isiklet	-4531
ebe	-4532
▁Tav	-4533
▁anlamda	-4534
SO	-4535
▁öden	-4536
▁Esk	-4537
▁vazgeç	-4538
▁Için	-4539
▁Yanıt	-4540
▁Sü	-4541
ılabilir	-4542
▁yazılım	-4543
▁kans	-4544
▁Abd	-4545
▁sonucunda	-4546
▁ton	-4547
▁Kil	-4548
▁katıldı	-4549
▁fel	-4550
ternatif	-4551
▁haz	-4552
.12	-4553
▁değişim	-4554
lendirme	-4555
▁Is	-4556
??	-4557
▁kı	-4558
.03	-4559
okul	-4560
rop	-4561
ğur	-4562
▁savun	-4563
sev	-4564
ediği	-4565
▁Recep	-4566
▁erken	-4567
▁öne	-4568
iki	-4569
▁stratej	-4570
ild	-4571
▁pil	-4572
▁́	-4573
▁Sayın	-4574
▁faiz	-4575
▁Fakültesi	-4576
edeni	-4577
▁Futbol	-4578
▁modelleri	-4579
▁alındı	-4580
ısıt	-4581
aberi	-4582
▁Diyarbakır	-4583
▁yazılı	-4584
▁süresi	-4585
▁ib	-4586
▁sözleş	-4587
▁Emniyet	-4588
emizin	-4589
ündeki	-4590
.000	-4591
sesuar	-4592
-12	-4593
▁Boz	-4594
vis	-4595
▁Malat	-4596
▁dünyada	-4597
ese	-4598
Or	-4599
▁Samsung	-4600
INDA	-4601
▁KUR	-4602
▁kalp	-4603
▁seni	-4604
▁Müslüman	-4605
car	-4606
▁güc	-4607
▁bazen	-4608
▁Antika	-4609
▁tas	-4610
▁güvenilir	-4611
iyiz	-4612
http	-4613
▁Sig	-4614
▁Başkanlığı	-4615
▁lan	-4616
▁büt	-4617
unuzu	-4618
▁evde	-4619
Er	-4620
kon	-4621
olog	-4622
▁Adı	-4623
▁kilo	-4624
▁(0	-4625
▁marka	-4626
yer	-4627
▁ikti	-4628
6,	-4629
anti	-4630
mit	-4631
▁Üye	-4632
▁Sınıf	-4633
ump	-4634
▁altı	-4635
ALI	-4636
4)	-4637
kur	-4638
▁2,	-4639
abileceği	-4640
▁MÜ	-4641
▁etme	-4642
2)	-4643
▁incelem	-4644
larımızı	-4645
eşem	-4646
▁Num	-4647
yaj	-4648
▁Meclis	-4649
▁Çiçek	-4650
▁hâ	-4651
▁çıkış	-4652
▁günlerde	-4653
▁Kodu	-4654
▁etkisi	-4655
▁isimli	-4656
▁oranı	-4657
nu	-4658
ena	-4659
▁;	-4660
DAN	-4661
▁meş	-4662
▁olumlu	-4663
liğin	-4664
▁Kadınlar	-4665
▁karşılık	-4666
süz	-4667
▁55	-4668
▁kapalı	-4669
▁döneminde	-4670
▁PKK	-4671
▁alma	-4672
▁bulmak	-4673
▁buy	-4674
▁standart	-4675
▁şampiyon	-4676
.01	-4677
▁öncesi	-4678
▁kitab	-4679
coin	-4680
▁yakal	-4681
▁Servis	-4682
cil	-4683
▁dizi	-4684
▁Hastanesi	-4685
İLER	-4686
▁milli	-4687
▁azalt	-4688
tek	-4689
▁Bab	-4690
▁geçerli	-4691
emli	-4692
▁insanın	-4693
▁İÇİN	-4694
▁kullanımı	-4695
▁parti	-4696
▁analiz	-4697
▁EK	-4698
iyan	-4699
▁haft	-4700
nan	-4701
▁aktif	-4702
▁Fer	-4703
▁önlem	-4704
▁Paylaş	-4705
▁içeren	-4706
▁Tut	-4707
▁korun	-4708
▁geçti	-4709
altına	-4710
mayacak	-4711
▁Gez	-4712
▁davranış	-4713
▁özelliği	-4714
▁Üç	-4715
dirim	-4716
leyin	-4717
▁beğen	-4718
▁Van	-4719
▁Online	-4720
▁yerleştir	-4721
▁Belediy	-4722
▁Hukuk	-4723
liğine	-4724
INI	-4725
▁End	-4726
MET	-4727
87	-4728
ie	-4729
diğimiz	-4730
erim	-4731
eğini	-4732
▁FETÖ	-4733
▁dahi	-4734
ux	-4735
gaz	-4736
▁[...]	-4737
▁olmadan	-4738
▁yıllarda	-4739
▁Gazetesi	-4740
▁yılda	-4741
top	-4742
eğe	-4743
▁çay	-4744
▁olmuştur	-4745
▁Sonra	-4746
▁güvenli	-4747
ilmek	-4748
Kar	-4749
umhur	-4750
▁etmektedir	-4751
▁lezz	-4752
İC	-4753
lanma	-4754
▁etkinlik	-4755
▁sebeb	-4756
▁Fotoğraf	-4757
▁32	-4758
▁Hasan	-4759
▁Grup	-4760
▁edilmiş	-4761
▁forum	-4762
▁bayram	-4763
öğretim	-4764
▁yetiştir	-4765
▁Mey	-4766
▁Puan	-4767
ukat	-4768
:10	-4769
▁mus	-4770
alardan	-4771
yüz	-4772
▁arab	-4773
▁Restor	-4774
load	-4775
▁bilir	-4776
▁hac	-4777
:15	-4778
▁Co	-4779
errah	-4780
▁sesli	-4781
▁Sonuç	-4782
ame	-4783
▁fizik	-4784
▁Ramazan	-4785
▁ürünler	-4786
▁alıp	-4787
ijinal	-4788
▁cas	-4789
▁tutar	-4790
birliği	-4791
▁eve	-4792
▁konak	-4793
ayım	-4794
▁Pet	-4795
▁Fır	-4796
▁şiş	-4797
eklam	-4798
amuk	-4799
▁Plan	-4800
lıklar	-4801
▁etik	-4802
▁orada	-4803
▁modern	-4804
utu	-4805
uşak	-4806
▁Üret	-4807
▁İle	-4808
ANB	-4809
▁cüm	-4810
ori	-4811
▁oyunc	-4812
İş	-4813
mini	-4814
avuz	-4815
eşme	-4816
▁yürüy	-4817
▁kişisel	-4818
▁ış	-4819
▁pozisyon	-4820
deb	-4821
▁Amerik	-4822
▁bl	-4823
bin	-4824
ica	-4825
elek	-4826
odrum	-4827
▁yasak	-4828
▁Yine	-4829
ograf	-4830
▁Sun	-4831
▁Buna	-4832
▁yerleş	-4833
67	-4834
ıb	-4835
▁lir	-4836
▁Muh	-4837
iyorlar	-4838
ısız	-4839
▁sa	-4840
▁Vol	-4841
▁Mersin	-4842
▁pay	-4843
▁Şampiyon	-4844
▁Kamp	-4845
AA	-4846
▁yaygın	-4847
▁yapmaya	-4848
▁yeşil	-4849
▁başk	-4850
lastik	-4851
▁9.	-4852
▁Sınav	-4853
▁misafir	-4854
▁Kup	-4855
▁koruy	-4856
▁bilinen	-4857
bon	-4858
▁düzenlem	-4859
▁Uçak	-4860
▁zayıf	-4861
▁çeken	-4862
▁yaşında	-4863
abileceğiniz	-4864
ita	-4865
▁Bilim	-4866
▁giren	-4867
▁Aşk	-4868
▁Ömer	-4869
▁Kav	-4870
urken	-4871
▁imza	-4872
▁Yemek	-4873
sem	-4874
▁namaz	-4875
▁Mem	-4876
▁köş	-4877
▁Tasarım	-4878
lediğ	-4879
▁Net	-4880
fat	-4881
▁Hz	-4882
▁Faz	-4883
▁firma	-4884
yip	-4885
▁çıkart	-4886
▁İsrail	-4887
larındaki	-4888
ash	-4889
▁Yağ	-4890
▁şikayet	-4891
▁Fransa	-4892
▁arasından	-4893
▁OR	-4894
osya	-4895
▁bet	-4896
ladım	-4897
▁Hayır	-4898
▁dışarı	-4899
▁Op	-4900
iter	-4901
▁Kocaeli	-4902
▁Elektrik	-4903
low	-4904
▁Tim	-4905
▁maliyet	-4906
▁tören	-4907
▁kup	-4908
▁tepki	-4909
▁2007	-4910
TC	-4911
▁Hız	-4912
▁Gaziantep	-4913
andır	-4914
▁Makin	-4915
▁yetkil	-4916
▁34	-4917
▁Çift	-4918
▁sayfa	-4919
▁teb	-4920
▁Irak	-4921
▁Del	-4922
lasik	-4923
▁Bahç	-4924
lerimizi	-4925
dikten	-4926
▁DA	-4927
▁onlara	-4928
▁gerektir	-4929
▁Post	-4930
▁Hazır	-4931
▁Bütün	-4932
▁inşaat	-4933
emize	-4934
▁yola	-4935
▁ürünü	-4936
▁etmeye	-4937
▁sahn	-4938
ug	-4939
▁istanbul	-4940
lav	-4941
şiv	-4942
▁Hüseyin	-4943
ÖL	-4944
▁Geri	-4945
aşı	-4946
▁300	-4947
▁düşünüyorum	-4948
▁ide	-4949
mı	-4950
red	-4951
madığı	-4952
Ğİ	-4953
▁vakit	-4954
▁adresi	-4955
amik	-4956
▁değişiklik	-4957
▁olanlar	-4958
▁Herk	-4959
öyl	-4960
riyet	-4961
MM	-4962
▁kadınlar	-4963
▁kırmızı	-4964
adeniz	-4965
▁Şirket	-4966
▁kullandı	-4967
▁önemlidir	-4968
▁TAR	-4969
▁üyesi	-4970
▁bağlantı	-4971
turk	-4972
eyecek	-4973
▁bunları	-4974
▁Min	-4975
▁Ner	-4976
▁acı	-4977
▁boyutu	-4978
▁gönül	-4979
▁siyah	-4980
▁Rad	-4981
▁İbrahim	-4982
▁sorumlu	-4983
alarından	-4984
anet	-4985
▁akıllı	-4986
edikleri	-4987
▁Tür	-4988
▁başlam	-4989
▁Dub	-4990
▁EL	-4991
▁Öl	-4992
▁zevk	-4993
▁Yunan	-4994
ris	-4995
▁nitelik	-4996
▁edip	-4997
▁bulabilirsiniz	-4998
▁Gal	-4999
68	-5000
hy	-5001
▁yeter	-5002
▁kişilik	-5003
İST	-5004
▁yapabilir	-5005
itör	-5006
ender	-5007
valtı	-5008
▁ET	-5009
▁3,	-5010
▁haberleri	-5011
▁..	-5012
▁Muham	-5013
▁suyu	-5014
▁araştırma	-5015
▁meslek	-5016
otan	-5017
orta	-5018
▁MHP	-5019
▁Turizm	-5020
▁finans	-5021
▁kaçır	-5022
tis	-5023
okulu	-5024
▁tatlı	-5025
▁edilecek	-5026
ANBUL	-5027
laşma	-5028
▁Android	-5029
▁civ	-5030
bette	-5031
▁olmasına	-5032
bank	-5033
▁cilt	-5034
▁rad	-5035
▁Görüş	-5036
▁Tarif	-5037
▁salon	-5038
▁İşlem	-5039
lası	-5040
▁Apple	-5041
▁ilanları	-5042
▁Teknoloji	-5043
▁tır	-5044
▁hus	-5045
▁Maç	-5046
abilen	-5047
oot	-5048
▁Gönderen	-5049
SA	-5050
ave	-5051
▁AT	-5052
▁mo	-5053
ölüm	-5054
ksiyon	-5055
▁başlıyor	-5056
▁itir	-5057
▁yapabilirsiniz	-5058
93	-5059
beri	-5060
▁Kredi	-5061
lal	-5062
▁na	-5063
▁aşırı	-5064
▁peş	-5065
▁Cep	-5066
▁eriş	-5067
▁Kazan	-5068
▁Destek	-5069
▁link	-5070
▁nas	-5071
DU	-5072
92	-5073
▁giz	-5074
akkale	-5075
imden	-5076
▁belirli	-5077
Ay	-5078
▁İd	-5079
memiş	-5080
diğini	-5081
abilmektedir	-5082
ELER	-5083
▁nedeni	-5084
ülü	-5085
▁Ya	-5086
asız	-5087
ال	-5088
▁red	-5089
▁asıl	-5090
▁getiren	-5091
▁Gümüş	-5092
▁Full	-5093
ıyordu	-5094
▁tecrüb	-5095
▁kendisi	-5096
▁ameliyat	-5097
▁Malz	-5098
▁Mahkem	-5099
ây	-5100
▁imk	-5101
▁yarg	-5102
▁maçı	-5103
▁Far	-5104
▁yönetic	-5105
▁Sup	-5106
:01	-5107
amin	-5108
▁doğrudan	-5109
▁Arap	-5110
▁Yakın	-5111
▁yapım	-5112
▁Böylece	-5113
ORUM	-5114
irketi	-5115
42	-5116
”,	-5117
ARA	-5118
▁vücut	-5119
▁deneyim	-5120
▁hakkı	-5121
▁detaylı	-5122
▁65	-5123
▁Cih	-5124
irler	-5125
ekorasyon	-5126
▁mahkem	-5127
▁kendisini	-5128
ld	-5129
▁Bilgisayar	-5130
▁diyerek	-5131
▁ortalama	-5132
▁vs	-5133
▁bec	-5134
▁diyen	-5135
RET	-5136
▁malzeme	-5137
▁bekliyor	-5138
ınızın	-5139
İV	-5140
▁hasta	-5141
oyu	-5142
▁Tok	-5143
▁Partisi	-5144
▁birinci	-5145
ENT	-5146
DİR	-5147
▁teknoloji	-5148
▁üzerindeki	-5149
bis	-5150
▁kalın	-5151
zu	-5152
ray	-5153
▁eşy	-5154
▁gelin	-5155
:13	-5156
macı	-5157
▁Blog	-5158
▁aracı	-5159
▁verecek	-5160
▁bunların	-5161
ÖY	-5162
▁}	-5163
▁sim	-5164
▁HABER	-5165
▁—	-5166
layıp	-5167
KAN	-5168
▁eşit	-5169
▁Yatır	-5170
UY	-5171
engi	-5172
▁atan	-5173
▁Toplan	-5174
ivas	-5175
▁ekib	-5176
▁temin	-5177
IC	-5178
▁reh	-5179
tuğ	-5180
▁rakam	-5181
old	-5182
82	-5183
▁eklen	-5184
▁di	-5185
▁beden	-5186
▁dokun	-5187
▁Güç	-5188
isiyle	-5189
ben	-5190
ĞİT	-5191
▁alanlar	-5192
ester	-5193
▁Sayf	-5194
▁vergi	-5195
Son	-5196
kır	-5197
▁Gaz	-5198
▁işlemleri	-5199
▁Kaz	-5200
▁tad	-5201
▁olanak	-5202
▁Ziyaret	-5203
43	-5204
Yorum	-5205
▁kişilerin	-5206
:20	-5207
▁istek	-5208
▁tutul	-5209
▁göç	-5210
▁Arab	-5211
▁iyil	-5212
▁sivil	-5213
▁kapasit	-5214
▁alg	-5215
▁seçen	-5216
▁askeri	-5217
▁ayı	-5218
hare	-5219
visor	-5220
▁ayrıl	-5221
cular	-5222
▁yalnızca	-5223
fe	-5224
▁istih	-5225
▁öğretim	-5226
▁karıştır	-5227
▁kullanmak	-5228
-11	-5229
▁150	-5230
ÖZ	-5231
▁işç	-5232
amayan	-5233
row	-5234
cuk	-5235
▁otobüs	-5236
▁Örneğin	-5237
▁ins	-5238
▁televizyon	-5239
:18	-5240
DV	-5241
▁ces	-5242
anlık	-5243
▁Düğ	-5244
sini	-5245
▁Dep	-5246
İstanbul	-5247
▁La	-5248
▁Kısa	-5249
nün	-5250
emesi	-5251
▁yönetimi	-5252
▁Enerj	-5253
▁harek	-5254
▁Tayyip	-5255
▁grub	-5256
▁İdar	-5257
İNE	-5258
▁inşa	-5259
▁demiş	-5260
▁TEK	-5261
▁Tor	-5262
▁Yurt	-5263
▁ortadan	-5264
▁olmasını	-5265
▁Art	-5266
▁İsp	-5267
▁Video	-5268
▁Fet	-5269
▁açı	-5270
▁tanış	-5271
▁arıyorum	-5272
▁bakış	-5273
▁gözaltına	-5274
:05	-5275
ikat	-5276
▁sam	-5277
anlıur	-5278
▁saygı	-5279
▁Tıp	-5280
eğen	-5281
larımıza	-5282
▁biliyor	-5283
▁Görüntül	-5284
usuna	-5285
▁Bölg	-5286
YON	-5287
:03	-5288
esir	-5289
▁(19	-5290
çuk	-5291
▁etraf	-5292
ýn	-5293
▁hatırlat	-5294
:23	-5295
atan	-5296
▁Fark	-5297
▁büny	-5298
▁birim	-5299
▁sorgul	-5300
▁ülkenin	-5301
▁Th	-5302
▁kargo	-5303
▁trafik	-5304
▁75	-5305
▁aktiv	-5306
İSİ	-5307
▁çıkıyor	-5308
▁Kuzey	-5309
encer	-5310
▁ölçü	-5311
▁opsiyon	-5312
esef	-5313
▁Gru	-5314
▁Yapılan	-5315
▁Artık	-5316
▁AS	-5317
▁Adet	-5318
üks	-5319
:11	-5320
▁Aj	-5321
▁Öğretmen	-5322
:45	-5323
▁düzenlen	-5324
:12	-5325
ıklı	-5326
liy	-5327
▁Yal	-5328
▁diren	-5329
▁birik	-5330
▁durdur	-5331
▁teşekkürler	-5332
▁kalite	-5333
ich	-5334
▁köyü	-5335
▁uyum	-5336
▁Link	-5337
▁Malatya	-5338
▁Jap	-5339
▁süreci	-5340
▁biçimde	-5341
Advisor	-5342
▁anlayış	-5343
91	-5344
▁heyecan	-5345
adas	-5346
▁Polis	-5347
▁dağıt	-5348
▁üçüncü	-5349
irt	-5350
aşık	-5351
▁olduğuna	-5352
▁duyg	-5353
?”	-5354
▁Hes	-5355
▁kullanılır	-5356
iner	-5357
▁Cumhuriyeti	-5358
irken	-5359
gat	-5360
▁dis	-5361
▁yılın	-5362
xy	-5363
landa	-5364
▁ağrı	-5365
anyo	-5366
▁pet	-5367
▁Çalışma	-5368
▁Pal	-5369
▁Ceza	-5370
▁nt	-5371
▁Zir	-5372
▁tedbir	-5373
ENİ	-5374
▁Aile	-5375
▁ince	-5376
▁ismi	-5377
▁Düzen	-5378
▁yerler	-5379
64	-5380
▁YIL	-5381
ang	-5382
▁sevk	-5383
▁Merhaba	-5384
ann	-5385
▁beb	-5386
:)	-5387
bek	-5388
▁soğuk	-5389
▁Hizmetleri	-5390
▁Oğ	-5391
▁tuz	-5392
▁kurulu	-5393
▁kuvvet	-5394
▁hükümet	-5395
▁mm	-5396
▁Tarım	-5397
:40	-5398
▁edebilirsiniz	-5399
diğim	-5400
▁amacı	-5401
▁Birleş	-5402
▁bölge	-5403
str	-5404
▁Men	-5405
ĞİTİM	-5406
istin	-5407
▁vide	-5408
ua	-5409
▁Don	-5410
▁Doğan	-5411
▁duyar	-5412
▁Sistemi	-5413
übü	-5414
ekom	-5415
▁iPhone	-5416
▁düştü	-5417
ematik	-5418
▁olmaya	-5419
▁üyelik	-5420
▁ayn	-5421
diniz	-5422
▁önceden	-5423
▁gelişim	-5424
usuf	-5425
▁müşteriler	-5426
atch	-5427
▁gitti	-5428
▁eğitimi	-5429
▁popüler	-5430
elli	-5431
ındır	-5432
:08	-5433
▁Com	-5434
espor	-5435
▁belirtilen	-5436
+1	-5437
▁almaktadır	-5438
liyet	-5439
▁ihtim	-5440
▁bilgilendir	-5441
▁fi	-5442
vik	-5443
ümr	-5444
▁(2)	-5445
imizden	-5446
▁hazırlık	-5447
▁yapımı	-5448
ilmektedir	-5449
ji	-5450
eciler	-5451
▁Yanıtla	-5452
uluğ	-5453
▁olduğumuz	-5454
ID	-5455
▁Batı	-5456
▁tehdit	-5457
ps	-5458
▁yaparken	-5459
▁Başvur	-5460
▁bağlant	-5461
ANLAR	-5462
▁şehr	-5463
▁siyaset	-5464
andar	-5465
▁38	-5466
▁th	-5467
▁Ucuz	-5468
▁yatak	-5469
▁öğret	-5470
ANS	-5471
▁İşlet	-5472
▁katılan	-5473
▁(5	-5474
▁uygulaması	-5475
▁con	-5476
▁mahk	-5477
ümüzdeki	-5478
▁kameralı	-5479
ll	-5480
Bur	-5481
▁öy	-5482
▁aj	-5483
OD	-5484
▁kısmı	-5485
▁SON	-5486
▁Para	-5487
▁Karak	-5488
ımlar	-5489
▁kulak	-5490
▁faydalan	-5491
gre	-5492
▁söyleyen	-5493
▁saf	-5494
▁kuru	-5495
▁yasal	-5496
▁with	-5497
▁şer	-5498
▁Tip	-5499
yaspor	-5500
▁Mühendis	-5501
cm	-5502
lardı	-5503
▁desteği	-5504
▁Euro	-5505
▁Kons	-5506
ebiliyor	-5507
▁Sarı	-5508
▁Organ	-5509
▁sahib	-5510
▁Kayseri	-5511
▁ediliyor	-5512
UB	-5513
▁ekipleri	-5514
▁33	-5515
amadı	-5516
leyman	-5517
▁çalışıyor	-5518
▁Lim	-5519
74	-5520
▁Kanun	-5521
▁tit	-5522
▁karşılaştır	-5523
uğu	-5524
ketbol	-5525
▁doğrult	-5526
▁dönüştür	-5527
▁Ara	-5528
▁etmesi	-5529
▁Kayıt	-5530
▁yalan	-5531
73	-5532
▁yapın	-5533
▁Mis	-5534
rosoft	-5535
▁düzenli	-5536
cin	-5537
EST	-5538
▁önde	-5539
▁getirdi	-5540
▁anlamına	-5541
▁herkesin	-5542
▁arka	-5543
▁yerini	-5544
▁Şen	-5545
▁Fa	-5546
masından	-5547
▁metre	-5548
▁Trans	-5549
adis	-5550
▁”	-5551
▁Duy	-5552
▁yapılmış	-5553
▁çalışması	-5554
▁blog	-5555
▁İşleri	-5556
:28	-5557
:50	-5558
▁Nev	-5559
▁depr	-5560
▁kartı	-5561
▁Uzman	-5562
▁tarım	-5563
▁ilişki	-5564
▁rahatsız	-5565
▁toz	-5566
▁bayanlar	-5567
:02	-5568
:17	-5569
▁tez	-5570
▁yüzyıl	-5571
▁Araştırma	-5572
app	-5573
▁İh	-5574
:14	-5575
celi	-5576
hotos	-5577
enn	-5578
ecik	-5579
▁ters	-5580
▁PRO	-5581
▁olduğundan	-5582
Tr	-5583
▁AC	-5584
lanıyor	-5585
▁Etkin	-5586
kad	-5587
▁aldım	-5588
amam	-5589
▁Kanunu	-5590
▁bölümü	-5591
▁İçerik	-5592
:43	-5593
▁Soy	-5594
tifik	-5595
:19	-5596
sar	-5597
▁Mez	-5598
maktan	-5599
▁Te	-5600
▁Fransız	-5601
▁48	-5602
dek	-5603
▁demir	-5604
▁duruş	-5605
▁4,	-5606
amıyor	-5607
▁ticari	-5608
72	-5609
:04	-5610
▁AV	-5611
▁ust	-5612
▁EM	-5613
▁sh	-5614
ınday	-5615
▁hassas	-5616
sc	-5617
dat	-5618
▁ağaç	-5619
▁işler	-5620
▁Çöz	-5621
▁kanun	-5622
EP	-5623
ektörü	-5624
▁binlerce	-5625
▁çocukların	-5626
inda	-5627
▁GEL	-5628
▁Mag	-5629
▁Karab	-5630
▁kus	-5631
EO	-5632
▁rezervasyon	-5633
:25	-5634
▁se	-5635
▁Değer	-5636
▁mezun	-5637
▁gelmiş	-5638
▁gördüğ	-5639
mesinin	-5640
ilme	-5641
▁mesel	-5642
:58	-5643
Biz	-5644
▁Yaşam	-5645
zan	-5646
iti	-5647
uanı	-5648
▁MER	-5649
▁gizli	-5650
▁bölgede	-5651
dol	-5652
▁neredeyse	-5653
ansiyon	-5654
üldü	-5655
▁Ge	-5656
tren	-5657
▁istiyoruz	-5658
▁Koç	-5659
▁diler	-5660
▁alternatif	-5661
:55	-5662
ider	-5663
isiniz	-5664
▁hepsi	-5665
▁Peygamber	-5666
▁birden	-5667
etli	-5668
▁uğraş	-5669
yr	-5670
▁1-	-5671
▁KAY	-5672
EÇ	-5673
▁kazanç	-5674
▁rast	-5675
▁Ayakkabı	-5676
▁şık	-5677
▁this	-5678
▁Göl	-5679
▁ES	-5680
▁çoğ	-5681
▁sonuçları	-5682
▁açıklaması	-5683
soy	-5684
LO	-5685
tın	-5686
ola	-5687
▁tanı	-5688
▁bilen	-5689
td	-5690
irim	-5691
alarla	-5692
azığ	-5693
▁ref	-5694
:09	-5695
▁kere	-5696
▁yapma	-5697
CEL	-5698
▁›	-5699
luluğ	-5700
▁Sem	-5701
debiyat	-5702
ATI	-5703
▁suy	-5704
anım	-5705
▁Kullanıcı	-5706
eline	-5707
▁Ödül	-5708
▁dediğ	-5709
▁Trip	-5710
arında	-5711
▁zamanı	-5712
anlıurfa	-5713
do	-5714
▁hakim	-5715
▁bö	-5716
▁zih	-5717
▁Beni	-5718
▁Değiş	-5719
▁şeker	-5720
▁ülkede	-5721
▁Çay	-5722
▁yazan	-5723
▁Sıcak	-5724
▁projesi	-5725
▁buraya	-5726
▁galib	-5727
:53	-5728
ĞI	-5729
▁yenil	-5730
▁Otelleri	-5731
İP	-5732
luluğu	-5733
asındaki	-5734
▁taleb	-5735
layıcı	-5736
TAN	-5737
tor	-5738
RE	-5739
irin	-5740
eya	-5741
stit	-5742
▁hissed	-5743
▁çalıştır	-5744
▁Şahin	-5745
▁UY	-5746
▁ka	-5747
▁imkanı	-5748
▁olmalı	-5749
▁doğrultusunda	-5750
▁anti	-5751
:22	-5752
▁Kaf	-5753
▁haberi	-5754
DIR	-5755
▁For	-5756
▁kriz	-5757
İB	-5758
▁bozuk	-5759
▁Sol	-5760
▁iktidar	-5761
UŞ	-5762
▁Mavi	-5763
:16	-5764
▁Motor	-5765
iyeli	-5766
ife	-5767
▁Ligi	-5768
afer	-5769
▁lig	-5770
▁çerçevesinde	-5771
▁Şey	-5772
▁Kamu	-5773
▁Kaymak	-5774
▁bağımsız	-5775
:48	-5776
▁Anahtar	-5777
:33	-5778
▁ilçe	-5779
▁Aşağı	-5780
89	-5781
▁ihtiyacı	-5782
▁zamanlarda	-5783
kent	-5784
:38	-5785
ike	-5786
▁icin	-5787
lon	-5788
▁Kızıl	-5789
▁açılış	-5790
:35	-5791
▁kişiye	-5792
▁Eskişehir	-5793
ouse	-5794
▁tarihleri	-5795
▁biletleri	-5796
mu	-5797
▁açılan	-5798
▁bulundur	-5799
ebilmek	-5800
Ak	-5801
▁Pak	-5802
▁Ekle	-5803
▁Yayınları	-5804
▁sorumluluk	-5805
vi	-5806
.2014	-5807
▁Normal	-5808
▁gelenek	-5809
▁sözleri	-5810
▁alınması	-5811
bat	-5812
amlı	-5813
▁uzat	-5814
▁gündem	-5815
lığının	-5816
:47	-5817
▁Gençlik	-5818
▁yorumlar	-5819
Bölüm	-5820
▁kayıp	-5821
ağın	-5822
▁mac	-5823
▁başkanı	-5824
bit	-5825
▁List	-5826
▁Ürünler	-5827
▁dolaş	-5828
▁İtalya	-5829
▁Yapı	-5830
diğinde	-5831
ordin	-5832
ole	-5833
irli	-5834
▁GÖR	-5835
ph	-5836
▁esk	-5837
bahar	-5838
▁Komisyon	-5839
71	-5840
▁düşman	-5841
lığında	-5842
▁aram	-5843
abilmesi	-5844
alog	-5845
▁İmam	-5846
▁KAD	-5847
▁Di	-5848
▁bahç	-5849
▁Kum	-5850
▁Müzik	-5851
ral	-5852
sul	-5853
dip	-5854
▁sonuna	-5855
▁hük	-5856
▁Bunlar	-5857
▁Işık	-5858
AG	-5859
yasal	-5860
ülebilir	-5861
▁sıv	-5862
▁kumaş	-5863
▁vermiş	-5864
:06	-5865
▁dikkate	-5866
79	-5867
▁makal	-5868
▁Reklam	-5869
▁darbe	-5870
▁üstün	-5871
▁Kahraman	-5872
ulur	-5873
:07	-5874
▁11.	-5875
▁Toplum	-5876
▁Akdeniz	-5877
▁etkilen	-5878
▁kayded	-5879
▁sebebi	-5880
▁ayakkabı	-5881
yeni	-5882
▁düzelt	-5883
▁bulunur	-5884
SAN	-5885
liğinin	-5886
▁Hayvan	-5887
▁Bon	-5888
▁yerli	-5889
posta	-5890
▁ihracat	-5891
▁memur	-5892
ılığıyla	-5893
▁buz	-5894
▁ves	-5895
▁alak	-5896
▁üretic	-5897
▁gelişmeler	-5898
Hay	-5899
ulmuş	-5900
▁sevin	-5901
TV	-5902
Baş	-5903
enkul	-5904
▁hücr	-5905
▁renkli	-5906
yalı	-5907
▁faktör	-5908
▁ilginç	-5909
:32	-5910
▁barış	-5911
şap	-5912
▁belirlen	-5913
INA	-5914
ende	-5915
▁Muhammed	-5916
▁dijital	-5917
41	-5918
ıf	-5919
örü	-5920
usunun	-5921
▁ilgilen	-5922
▁nin	-5923
▁kitabı	-5924
:31	-5925
▁eb	-5926
zi	-5927
tre	-5928
ledik	-5929
▁tanın	-5930
▁çevre	-5931
olon	-5932
▁sabit	-5933
▁itibariyle	-5934
▁geçiş	-5935
lerimizin	-5936
▁GEN	-5937
▁süs	-5938
▁şunları	-5939
▁Ted	-5940
▁izmir	-5941
▁olacağını	-5942
▁ED	-5943
▁hata	-5944
▁komp	-5945
usal	-5946
▁Bayrak	-5947
Com	-5948
▁may	-5949
▁şaşır	-5950
:26	-5951
sine	-5952
isyen	-5953
▁Süleyman	-5954
▁adr	-5955
▁yarın	-5956
▁Yatırım	-5957
ano	-5958
▁gü	-5959
▁Dar	-5960
▁Kes	-5961
▁bür	-5962
▁Fran	-5963
:24	-5964
tılar	-5965
▁acil	-5966
▁modeli	-5967
:52	-5968
:59	-5969
▁Rab	-5970
deri	-5971
▁özen	-5972
▁sistemleri	-5973
▁ÖN	-5974
▁içindeki	-5975
▁muhteşem	-5976
In	-5977
▁Bi	-5978
▁girdi	-5979
▁Marka	-5980
leyerek	-5981
▁Programı	-5982
▁Onun	-5983
▁Arama	-5984
▁Feder	-5985
:21	-5986
:44	-5987
▁TB	-5988
rap	-5989
emizi	-5990
▁Devam	-5991
▁tablet	-5992
▁ettiğini	-5993
▁kendilerine	-5994
0,	-5995
:39	-5996
▁Yah	-5997
balaj	-5998
▁insanları	-5999
▁Yür	-6000
▁Uygun	-6001
PS	-6002
Cİ	-6003
▁ordu	-6004
▁mağaz	-6005
▁Olay	-6006
▁İlgili	-6007
▁kaynağı	-6008
▁istiyorsanız	-6009
):	-6010
▁Ordu	-6011
▁Kargo	-6012
▁görünüm	-6013
yň	-6014
:27	-6015
▁yaşamak	-6016
▁Trabzonspor	-6017
5,	-6018
OLO	-6019
ıyız	-6020
▁bask	-6021
▁hapis	-6022
▁görsel	-6023
▁ilişkiler	-6024
tanın	-6025
▁sevgil	-6026
imd	-6027
▁Muht	-6028
▁Hüküm	-6029
acık	-6030
▁takımı	-6031
▁Adres	-6032
▁fatur	-6033
▁umut	-6034
▁dedim	-6035
▁herkese	-6036
▁com	-6037
▁okundu	-6038
gah	-6039
osyon	-6040
led	-6041
.2013	-6042
kitap	-6043
▁unsur	-6044
▁turizm	-6045
▁Popüler	-6046
▁YÖN	-6047
▁üyeleri	-6048
LEN	-6049
▁hayatı	-6050
adığınız	-6051
▁mens	-6052
ığında	-6053
▁odası	-6054
▁teşkil	-6055
▁dom	-6056
▁Adam	-6057
▁sunan	-6058
▁dünyaya	-6059
eliği	-6060
GS	-6061
▁Ann	-6062
▁ge	-6063
▁şub	-6064
meyin	-6065
▁Bakım	-6066
:56	-6067
lic	-6068
alaxy	-6069
ym	-6070
:46	-6071
▁gem	-6072
▁kaydetti	-6073
:34	-6074
ilip	-6075
▁kurulan	-6076
69	-6077
▁müt	-6078
▁gücü	-6079
▁kesim	-6080
▁Grubu	-6081
:37	-6082
RAM	-6083
HA	-6084
:29	-6085
▁boğ	-6086
lass	-6087
▁Basın	-6088
▁uyarı	-6089
▁sağlıyor	-6090
▁dolayısıyla	-6091
enizi	-6092
addesi	-6093
rand	-6094
▁Kent	-6095
▁Yorumları	-6096
▁ex	-6097
▁Doç	-6098
gül	-6099
:41	-6100
▁fal	-6101
andarma	-6102
▁yedek	-6103
▁Erzurum	-6104
▁taraftar	-6105
84	-6106
ÜY	-6107
▁Hatta	-6108
masıyla	-6109
▁BU	-6110
ower	-6111
▁ada	-6112
▁tedavisi	-6113
onav	-6114
▁refer	-6115
▁Bodrum	-6116
▁acaba	-6117
▁yıllar	-6118
▁KAL	-6119
▁pak	-6120
liliği	-6121
▁fabrik	-6122
▁Mağ	-6123
▁görülen	-6124
manızı	-6125
▁Festiv	-6126
▁DEĞ	-6127
▁beklent	-6128
▁fer	-6129
▁şark	-6130
▁Doğal	-6131
▁Takım	-6132
▁muhal	-6133
▁mekt	-6134
▁olmalıdır	-6135
▁Hangi	-6136
▁koruma	-6137
▁Denizli	-6138
▁tor	-6139
ilmez	-6140
▁değeri	-6141
name	-6142
▁Resmi	-6143
▁Günlük	-6144
▁denetim	-6145
otos	-6146
▁mağdur	-6147
otans	-6148
▁Şehit	-6149
▁ederken	-6150
▁tıklayın	-6151
▁Ort	-6152
▁endiş	-6153
▁tablo	-6154
endim	-6155
▁kavuş	-6156
▁demektir	-6157
▁Sim	-6158
▁makine	-6159
63	-6160
obot	-6161
▁belediy	-6162
▁ÜN	-6163
azer	-6164
▁Inn	-6165
▁almaya	-6166
elle	-6167
▁hazırlanan	-6168
▁250	-6169
▁olmam	-6170
ırlar	-6171
▁Üzer	-6172
▁Sokak	-6173
▁oldukları	-6174
▁Diş	-6175
▁(201	-6176
▁akadem	-6177
lerimize	-6178
ansız	-6179
▁seks	-6180
▁İzle	-6181
61	-6182
ilde	-6183
▁fonksiyon	-6184
▁Kelim	-6185
▁ağırlık	-6186
▁giderek	-6187
▁BEL	-6188
▁istik	-6189
6)	-6190
▁dek	-6191
▁söylüyor	-6192
▁Zamanı	-6193
▁yaşay	-6194
daroğlu	-6195
AÇ	-6196
ko	-6197
▁adını	-6198
▁İsmail	-6199
▁taşıyan	-6200
▁görüntülü	-6201
▁Enerji	-6202
▁olmaktadır	-6203
▁genelinde	-6204
▁yönlendir	-6205
▁öncelikle	-6206
▁İp	-6207
▁aracılığıyla	-6208
▁kurs	-6209
▁oyunları	-6210
▁Lev	-6211
▁besin	-6212
:42	-6213
ART	-6214
ACAK	-6215
▁İSTANBUL	-6216
:57	-6217
▁Hakan	-6218
▁falan	-6219
İF	-6220
anç	-6221
Dev	-6222
lub	-6223
▁Psik	-6224
▁Alıntı	-6225
▁Doktor	-6226
abileceğini	-6227
▁iken	-6228
:51	-6229
ruf	-6230
ardin	-6231
▁maaş	-6232
▁ten	-6233
ürriyet	-6234
alesef	-6235
▁vücud	-6236
:49	-6237
▁VER	-6238
duğumuz	-6239
ebiliriz	-6240
priz	-6241
▁Forex	-6242
büm	-6243
▁çoğun	-6244
▁telefonu	-6245
▁Çanakkale	-6246
bas	-6247
▁durumlarda	-6248
▁Mek	-6249
▁yarı	-6250
▁faydalı	-6251
slan	-6252
urdu	-6253
▁Özellikleri	-6254
rısı	-6255
▁Alış	-6256
▁işin	-6257
▁Karar	-6258
manıza	-6259
undaki	-6260
▁ý	-6261
▁makinesi	-6262
port	-6263
ırsız	-6264
▁Görev	-6265
▁vermektedir	-6266
Gün	-6267
Her	-6268
▁takv	-6269
ediğiniz	-6270
:54	-6271
itir	-6272
▁â	-6273
▁Aslında	-6274
▁Ege	-6275
▁dava	-6276
ıköy	-6277
/10	-6278
▁İnşaat	-6279
afet	-6280
▁Mor	-6281
▁konuşan	-6282
▁Col	-6283
▁Alın	-6284
▁deng	-6285
▁iade	-6286
,"	-6287
ky	-6288
▁alabilirsiniz	-6289
doğ	-6290
▁Edebiyat	-6291
▁MAH	-6292
▁orijinal	-6293
▁bahset	-6294
tesi	-6295
▁Trump	-6296
▁hızla	-6297
▁roman	-6298
▁sorunun	-6299
sey	-6300
▁Form	-6301
▁bedava	-6302
▁sermay	-6303
▁vad	-6304
anta	-6305
▁Kuş	-6306
aporu	-6307
ıntılı	-6308
▁taşı	-6309
▁adalet	-6310
ence	-6311
▁gür	-6312
ümrük	-6313
▁Orman	-6314
▁İZ	-6315
▁Kırmızı	-6316
▁sakin	-6317
şe	-6318
▁ölü	-6319
▁ödem	-6320
▁parçası	-6321
▁By	-6322
▁gidiyor	-6323
ARI	-6324
▁tanıtım	-6325
kel	-6326
:36	-6327
▁şef	-6328
▁HDP	-6329
▁toplu	-6330
▁kred	-6331
▁odak	-6332
▁Anne	-6333
▁bakın	-6334
▁bileti	-6335
▁edilmiştir	-6336
▁Temel	-6337
ayasa	-6338
siyet	-6339
▁Demokr	-6340
▁Manisa	-6341
▁Bitcoin	-6342
MAK	-6343
▁Asya	-6344
-01	-6345
▁Çevre	-6346
lenmek	-6347
▁kapan	-6348
acağına	-6349
▁elektronik	-6350
TÜ	-6351
kim	-6352
▁mini	-6353
▁Kendi	-6354
▁kolayca	-6355
▁Amerikan	-6356
▁Karadeniz	-6357
eral	-6358
İYOR	-6359
▁dan	-6360
▁bakan	-6361
▁toplumsal	-6362
MS	-6363
▁virüs	-6364
▁Cumhurbaşkan	-6365
▁kök	-6366
▁dini	-6367
62	-6368
83	-6369
ular	-6370
masın	-6371
▁Oper	-6372
rat	-6373
▁hil	-6374
dırma	-6375
lıkları	-6376
▁Kuv	-6377
▁nefes	-6378
▁yaşat	-6379
adıkları	-6380
lerken	-6381
▁tl	-6382
▁yaralan	-6383
itesi	-6384
▁ofis	-6385
▁Ekran	-6386
▁arkadaşı	-6387
▁paylaşım	-6388
ibex	-6389
▁nakliye	-6390
▁Sivas	-6391
▁ücreti	-6392
▁Mesajlar	-6393
bo	-6394
▁Sakarya	-6395
▁ep	-6396
▁Öner	-6397
▁admin	-6398
▁kamera	-6399
▁Daire	-6400
▁süper	-6401
▁sunuyor	-6402
ty	-6403
▁Ken	-6404
▁kullanan	-6405
vel	-6406
▁Emek	-6407
▁idi	-6408
LEM	-6409
TER	-6410
▁üniversite	-6411
▁taşıma	-6412
lanmıştır	-6413
ahh	-6414
▁ch	-6415
▁no	-6416
▁Kalite	-6417
▁Okunma	-6418
▁gösteriyor	-6419
▁Kurumu	-6420
▁Proje	-6421
lemeye	-6422
▁istif	-6423
▁temizlik	-6424
ami	-6425
▁Yusuf	-6426
▁Rü	-6427
▁Şube	-6428
osk	-6429
▁Bahis	-6430
El	-6431
▁Kork	-6432
▁geldiği	-6433
▁Kış	-6434
▁Mel	-6435
duc	-6436
▁120	-6437
▁12.	-6438
iyede	-6439
ğüs	-6440
haber	-6441
▁süren	-6442
lamaya	-6443
▁altyap	-6444
▁etki	-6445
ura	-6446
ğer	-6447
▁AÇ	-6448
eter	-6449
▁Air	-6450
▁2006	-6451
▁Önce	-6452
▁Benzer	-6453
▁Ekonomi	-6454
▁benzeri	-6455
▁sanatçı	-6456
ığa	-6457
▁Siyas	-6458
▁Tesis	-6459
yol	-6460
▁LED	-6461
▁moda	-6462
▁Satılık	-6463
▁yaşadığı	-6464
ayol	-6465
▁lik	-6466
ecekler	-6467
▁olduğunuz	-6468
▁seçenekleri	-6469
ava	-6470
****	-6471
▁mevcuttur	-6472
ARK	-6473
▁fabrika	-6474
▁yakalan	-6475
ure	-6476
▁nesil	-6477
▁Afrika	-6478
▁Tal	-6479
▁Emre	-6480
araj	-6481
▁Fen	-6482
▁noktada	-6483
UP	-6484
▁TripAdvisor	-6485
▁banka	-6486
cık	-6487
▁Cev	-6488
▁2000	-6489
▁terk	-6490
indistan	-6491
▁Uç	-6492
dığım	-6493
▁mutfak	-6494
alimanı	-6495
danı	-6496
▁sarı	-6497
okol	-6498
▁eşi	-6499
▁Tedav	-6500
▁final	-6501
▁37	-6502
elal	-6503
▁İlanları	-6504
▁Engel	-6505
▁Akıl	-6506
rrrr	-6507
▁yaralı	-6508
▁gıda	-6509
▁organizasyon	-6510
▁rk	-6511
▁Kanal	-6512
▁tok	-6513
▁Seyahat	-6514
▁’	-6515
▁Yay	-6516
▁Gazete	-6517
▁Yukarı	-6518
▁Gündem	-6519
Gen	-6520
ces	-6521
▁sunu	-6522
▁ulaşabilirsiniz	-6523
afe	-6524
▁bilinç	-6525
▁sizler	-6526
▁becer	-6527
II	-6528
ılıp	-6529
▁Lisans	-6530
▁dönemi	-6531
▁bilgiye	-6532
▁erkekler	-6533
▁yazıl	-6534
▁tedarik	-6535
TIR	-6536
▁Fu	-6537
ikol	-6538
▁Hemen	-6539
▁Mısır	-6540
atistik	-6541
▁Bölge	-6542
▁kilomet	-6543
▁Yabancı	-6544
▁buradan	-6545
▁birini	-6546
▁görüşmeler	-6547
html	-6548
▁Vali	-6549
▁İsv	-6550
mr	-6551
▁Kem	-6552
▁esnaf	-6553
raz	-6554
▁Projesi	-6555
gazi	-6556
uncu	-6557
▁Kulübü	-6558
▁plak	-6559
▁sorunları	-6560
▁nam	-6561
Fiyat	-6562
▁futbolcu	-6563
▁kendilerini	-6564
üstr	-6565
▁tipi	-6566
▁Ba	-6567
indi	-6568
isiz	-6569
IP	-6570
ix	-6571
▁ithal	-6572
lanacak	-6573
LÜ	-6574
va	-6575
alam	-6576
lemesi	-6577
gn	-6578
▁Fiyatı	-6579
▁yüzünden	-6580
ens	-6581
▁Uygulama	-6582
▁çam	-6583
▁potans	-6584
FA	-6585
▁ifadelerini	-6586
▁geçtiğimiz	-6587
▁büyüm	-6588
▁günler	-6589
abiliriz	-6590
▁görünüyor	-6591
illeri	-6592
▁yapısı	-6593
OLOJ	-6594
▁Deri	-6595
▁Tep	-6596
ilerden	-6597
OY	-6598
▁kaçın	-6599
▁yaşlı	-6600
dukları	-6601
lot	-6602
▁oynan	-6603
orld	-6604
▁Dam	-6605
▁zam	-6606
▁EV	-6607
▁Çak	-6608
▁Finans	-6609
▁Bayramı	-6610
▁ettim	-6611
▁zir	-6612
▁Bölümü	-6613
▁uyumlu	-6614
▁zorunlu	-6615
▁Ur	-6616
▁Def	-6617
ağını	-6618
▁elli	-6619
mede	-6620
ferans	-6621
▁düşen	-6622
▁teşvik	-6623
ont	-6624
ette	-6625
biy	-6626
▁kanser	-6627
▁Qu	-6628
unus	-6629
yası	-6630
▁orman	-6631
▁yenilik	-6632
▁yöntemi	-6633
pp	-6634
▁araba	-6635
▁gurur	-6636
dığımız	-6637
▁Kontrol	-6638
▁edilebilir	-6639
▁aran	-6640
▁biy	-6641
▁val	-6642
Tek	-6643
▁Geliş	-6644
▁Erkekler	-6645
▁2-	-6646
uyum	-6647
İNDE	-6648
▁Küt	-6649
▁bı	-6650
▁Des	-6651
/5	-6652
edia	-6653
▁muhab	-6654
dun	-6655
▁kadının	-6656
▁işlev	-6657
▁olmadı	-6658
▁tarihli	-6659
▁Şanlıurfa	-6660
Daha	-6661
▁rakip	-6662
ibe	-6663
▁adayı	-6664
▁sanki	-6665
▁Abdullah	-6666
rof	-6667
atlar	-6668
▁yoluyla	-6669
ting	-6670
▁Pil	-6671
▁şirketi	-6672
▁Modelleri	-6673
mus	-6674
▁Ağır	-6675
mod	-6676
▁Mik	-6677
▁yetenek	-6678
▁Tv	-6679
▁Dok	-6680
▁türü	-6681
ss	-6682
-09	-6683
aze	-6684
▁pen	-6685
▁yarım	-6686
▁Çevir	-6687
▁terörist	-6688
sion	-6689
▁Avust	-6690
▁Ulusal	-6691
▁5,	-6692
▁Üyesi	-6693
▁sayede	-6694
echn	-6695
▁Doğru	-6696
▁düşüş	-6697
▁üretimi	-6698
mesiyle	-6699
▁Meslek	-6700
▁hasar	-6701
▁kalb	-6702
▁Yönetimi	-6703
▁Hızlı	-6704
▁İncel	-6705
▁hisse	-6706
▁böylece	-6707
ıd	-6708
mad	-6709
anık	-6710
▁Rehberi	-6711
▁Teşekkür	-6712
▁Madde	-6713
▁öngör	-6714
bj	-6715
▁Gıda	-6716
ülmesi	-6717
▁Eb	-6718
▁bakımından	-6719
▁Ec	-6720
▁köpek	-6721
05	-6722
▁sevgili	-6723
DEM	-6724
▁Kıy	-6725
ohn	-6726
▁Anlat	-6727
▁düşünüyor	-6728
▁BAK	-6729
muyor	-6730
▁adeta	-6731
▁yerden	-6732
▁ortamda	-6733
▁1000	-6734
▁sebebiyle	-6735
/2018	-6736
▁Photos	-6737
▁bahsed	-6738
▁You	-6739
▁birer	-6740
▁geçer	-6741
▁gözlem	-6742
▁Kılıçdaroğlu	-6743
▁Hac	-6744
▁deprem	-6745
▁Galaxy	-6746
mamaktadır	-6747
maraş	-6748
tifak	-6749
layınız	-6750
mes	-6751
▁usul	-6752
tığımız	-6753
▁numaraları	-6754
{"	-6755
▁SP	-6756
▁ekibi	-6757
abileceğ	-6758
▁bilgisi	-6759
▁He	-6760
▁Paris	-6761
▁alınır	-6762
ove	-6763
▁Metin	-6764
▁Taraf	-6765
▁yangın	-6766
▁Yum	-6767
▁zek	-6768
▁Ortak	-6769
mesinde	-6770
▁gerç	-6771
▁42	-6772
room	-6773
▁Zor	-6774
▁kodu	-6775
▁ideal	-6776
antolon	-6777
otik	-6778
laşık	-6779
▁amaçlı	-6780
lob	-6781
ree	-6782
▁OK	-6783
▁Tedarik	-6784
usuz	-6785
▁görevi	-6786
▁Eğitimi	-6787
▁çelik	-6788
duğunuz	-6789
▁Elazığ	-6790
▁erişim	-6791
▁bölümünde	-6792
▁hayırlı	-6793
▁port	-6794
ownload	-6795
81	-6796
orno	-6797
▁büyü	-6798
▁Share	-6799
▁anal	-6800
▁anlatan	-6801
▁yolcu	-6802
-05	-6803
▁baba	-6804
▁müdahale	-6805
":[	-6806
pg	-6807
lish	-6808
▁sever	-6809
▁Kadıköy	-6810
▁yaptıkları	-6811
-08	-6812
urta	-6813
▁Dis	-6814
ılmasına	-6815
▁geleceğ	-6816
▁kara	-6817
▁belirtildi	-6818
Yeni	-6819
▁lok	-6820
▁İt	-6821
▁kaçak	-6822
▁Sayısı	-6823
▁--	-6824
▁ku	-6825
▁Bundan	-6826
▁BM	-6827
▁400	-6828
▁Barış	-6829
▁kolaylaş	-6830
ipl	-6831
▁diyet	-6832
▁seyir	-6833
▁anahtar	-6834
▁©	-6835
İLİ	-6836
kisi	-6837
▁Pek	-6838
andev	-6839
▁Ka	-6840
▁Sizin	-6841
dy	-6842
ool	-6843
▁Fik	-6844
▁çağrı	-6845
▁Bölgesi	-6846
▁metal	-6847
\/	-6848
▁KAP	-6849
▁makam	-6850
▁BÖL	-6851
amanın	-6852
ima	-6853
▁şarj	-6854
▁çekti	-6855
▁Bahçeli	-6856
▁Dünyanın	-6857
▁isterseniz	-6858
bel	-6859
▁niyet	-6860
omosyon	-6861
7)	-6862
▁gerekç	-6863
▁yetkili	-6864
ÜLT	-6865
▁hakları	-6866
▁ı	-6867
▁gümüş	-6868
lanabilir	-6869
▁kaybol	-6870
▁açıdan	-6871
▁birbirinden	-6872
▁eig	-6873
▁Bül	-6874
▁garant	-6875
▁alıcı	-6876
▁takdirde	-6877
▁konaklama	-6878
▁Konuş	-6879
▁küresel	-6880
▁çor	-6881
▁birleştir	-6882
tayız	-6883
▁yenilen	-6884
▁facebook	-6885
ezil	-6886
utma	-6887
▁Dolayısıyla	-6888
▁aralık	-6889
▁yükselt	-6890
rid	-6891
▁inç	-6892
▁tir	-6893
ağına	-6894
eğine	-6895
▁bünyesinde	-6896
▁GB	-6897
phot	-6898
▁BUR	-6899
▁gök	-6900
▁göm	-6901
▁Kaya	-6902
▁Dal	-6903
▁est	-6904
▁işçi	-6905
▁izlenme	-6906
şi	-6907
▁dö	-6908
müştür	-6909
▁sağlayacak	-6910
OĞLU	-6911
opark	-6912
yaz	-6913
▁44	-6914
etiyle	-6915
ıyaman	-6916
▁2019,	-6917
▁Lütfen	-6918
▁yürüyüş	-6919
▁Site	-6920
istanbul	-6921
▁yapılmıştır	-6922
has	-6923
tıkları	-6924
lex	-6925
▁ster	-6926
▁kalem	-6927
▁cezası	-6928
▁Super	-6929
▁canım	-6930
▁düğün	-6931
que	-6932
unction	-6933
▁Takımı	-6934
▁oteller	-6935
▁istediği	-6936
▁Balıkesir	-6937
yurt	-6938
lerindeki	-6939
',	-6940
abor	-6941
▁taban	-6942
▁tabii	-6943
▁avukat	-6944
Tar	-6945
eceksiniz	-6946
guldak	-6947
▁sitesinde	-6948
▁Paşa	-6949
lit	-6950
▁evet	-6951
layacak	-6952
▁misiniz	-6953
▁gösterir	-6954
ıyım	-6955
▁Kamer	-6956
▁gündeme	-6957
laç	-6958
madığını	-6959
▁Geliştir	-6960
!”	-6961
▁Alev	-6962
▁üstüne	-6963
▁mor	-6964
▁Uğur	-6965
▁Play	-6966
▁Medya	-6967
▁gecik	-6968
zar	-6969
ebze	-6970
▁Rapor	-6971
▁York	-6972
▁HAK	-6973
▁Piyas	-6974
▁verilir	-6975
▁kültürel	-6976
▁sanayi	-6977
▁çıkacak	-6978
▁Öde	-6979
Sen	-6980
▁2012,	-6981
▁gelip	-6982
▁rahmet	-6983
onguldak	-6984
çın	-6985
▁Dergisi	-6986
▁operatör	-6987
pa	-6988
tum	-6989
▁karşılan	-6990
alis	-6991
oper	-6992
▁birleş	-6993
▁Caddesi	-6994
▁konuşma	-6995
▁kullanılabilir	-6996
▁SAY	-6997
malarını	-6998
▁eh	-6999
ütü	-7000
▁yağmur	-7001
ahis	-7002
gs	-7003
▁yüzey	-7004
EE	-7005
imle	-7006
▁ulaşım	-7007
▁set	-7008
tüsü	-7009
over	-7010
▁DEV	-7011
▁oğlu	-7012
▁maddi	-7013
▁Ayr	-7014
▁Hil	-7015
şı	-7016
▁Vakfı	-7017
▁Lisesi	-7018
▁13.	-7019
▁Terör	-7020
................	-7021
ahil	-7022
▁dönüşüm	-7023
▁olduklarını	-7024
▁keyifli	-7025
otosiklet	-7026
NE	-7027
▁mül	-7028
antel	-7029
▁karşıya	-7030
rens	-7031
tein	-7032
incir	-7033
▁danışman	-7034
-07	-7035
▁ufak	-7036
▁oldum	-7037
▁Özgür	-7038
onavirüs	-7039
▁öğrencilerin	-7040
▁yayınlanan	-7041
AĞLIK	-7042
press	-7043
▁şahıs	-7044
▁Sch	-7045
▁Dışişleri	-7046
hats	-7047
giliz	-7048
▁vermeye	-7049
▁YAZ	-7050
▁Emlak	-7051
▁Geçen	-7052
GÜN	-7053
▁br	-7054
düğünü	-7055
▁TOP	-7056
▁gayet	-7057
▁görür	-7058
"]	-7059
▁kısım	-7060
▁kadınların	-7061
▁EĞİTİM	-7062
▁Uk	-7063
ıydı	-7064
zersiz	-7065
▁dosya	-7066
▁Mini	-7067
▁Stok	-7068
▁güçlendir	-7069
uşturucu	-7070
-6	-7071
▁MAD	-7072
▁inanç	-7073
LET	-7074
▁anında	-7075
mara	-7076
duğum	-7077
ments	-7078
▁deri	-7079
▁aşağıda	-7080
▁işbirliği	-7081
▁talim	-7082
▁Uygulam	-7083
▁My	-7084
▁birinin	-7085
▁Köyü	-7086
▁çağır	-7087
▁Filistin	-7088
▁nakliyat	-7089
GB	-7090
▁Home	-7091
▁harf	-7092
▁farklılık	-7093
▁verilecek	-7094
▁Git	-7095
▁Örg	-7096
▁Gece	-7097
▁Hatay	-7098
▁bisiklet	-7099
-02	-7100
▁mg	-7101
ülür	-7102
▁grubu	-7103
▁başlangıç	-7104
▁dilek	-7105
▁maruz	-7106
▁gitmek	-7107
▁başlamış	-7108
▁Da	-7109
▁ondan	-7110
▁Çıkış	-7111
▁Microsoft	-7112
▁başlayacak	-7113
▁Koc	-7114
▁doy	-7115
dirne	-7116
▁sinir	-7117
▁esnasında	-7118
▁Tatil	-7119
▁evden	-7120
▁Mahkemesi	-7121
ho	-7122
▁City	-7123
-20	-7124
dön	-7125
abilirler	-7126
oma	-7127
prü	-7128
latma	-7129
df	-7130
▁varlık	-7131
▁Adalet	-7132
▁fiziksel	-7133
▁Neler	-7134
▁sergil	-7135
ildiğini	-7136
emeyen	-7137
iyordu	-7138
▁Pamuk	-7139
▁denet	-7140
▁beklem	-7141
▁kimlik	-7142
▁SER	-7143
▁TAK	-7144
▁mutluluk	-7145
ÜŞ	-7146
ille	-7147
▁Kral	-7148
adığımız	-7149
▁full	-7150
▁kağıt	-7151
▁yolda	-7152
▁insanlara	-7153
▁bugüne	-7154
üye	-7155
▁pah	-7156
▁tanesi	-7157
ody	-7158
ayarak	-7159
ANK	-7160
▁Ltd	-7161
▁Dönem	-7162
▁ulaştır	-7163
▁gösterdi	-7164
ediklerini	-7165
gari	-7166
▁TEM	-7167
▁ankara	-7168
▁ret	-7169
arta	-7170
▁far	-7171
▁nem	-7172
mediği	-7173
▁başlıklı	-7174
▁yakından	-7175
▁çalışmak	-7176
▁sektöründe	-7177
ational	-7178
fik	-7179
▁YAR	-7180
▁Örnek	-7181
larınıza	-7182
lip	-7183
▁Fi	-7184
ikal	-7185
çılık	-7186
▁sürpriz	-7187
▁Birleşik	-7188
▁zel	-7189
▁yansıt	-7190
▁Boğ	-7191
▁Zaten	-7192
yu	-7193
urme	-7194
ebelik	-7195
▁Metal	-7196
PR	-7197
▁inc	-7198
▁2016,	-7199
▁DER	-7200
▁Vüc	-7201
▁kaybetti	-7202
crip	-7203
▁Bes	-7204
▁listesi	-7205
ğla	-7206
▁selam	-7207
ihat	-7208
▁Baz	-7209
▁koltuk	-7210
▁TUR	-7211
▁zeytin	-7212
▁ayrıntı	-7213
▁vererek	-7214
8)	-7215
▁BİLG	-7216
▁korumak	-7217
▁ülkemizde	-7218
DR	-7219
iews	-7220
▁oranında	-7221
▁birbirine	-7222
▁sevgi	-7223
/12	-7224
▁kısıt	-7225
▁rekabet	-7226
▁yönünde	-7227
▁kahraman	-7228
kun	-7229
▁Odaları	-7230
▁sorunlar	-7231
▁yılından	-7232
▁Cor	-7233
▁yitir	-7234
liliğ	-7235
▁Hafta	-7236
▁casino	-7237
▁halkın	-7238
uşu	-7239
▁tıp	-7240
▁DEN	-7241
▁kaza	-7242
Av	-7243
Bil	-7244
▁ikili	-7245
▁yazık	-7246
desi	-7247
und	-7248
▁İLE	-7249
▁Emin	-7250
▁insanı	-7251
▁yaptım	-7252
▁false	-7253
dığınız	-7254
meyecek	-7255
kor	-7256
burg	-7257
rist	-7258
▁VAR	-7259
▁tap	-7260
▁yolculuk	-7261
eyse	-7262
▁hocam	-7263
▁yerleri	-7264
-06	-7265
text	-7266
▁dey	-7267
▁mür	-7268
▁(1	-7269
▁Sep	-7270
▁göl	-7271
▁ÇAL	-7272
▁Çam	-7273
▁sorular	-7274
tent	-7275
▁Kupası	-7276
▁ır	-7277
▁Hır	-7278
▁gidip	-7279
▁Dayan	-7280
▁Sözleş	-7281
▁→	-7282
▁pratik	-7283
,,	-7284
.’	-7285
hay	-7286
▁IS	-7287
▁kaps	-7288
ümüze	-7289
!!!	-7290
büs	-7291
▁husus	-7292
▁genelde	-7293
öp	-7294
▁kalmış	-7295
idget	-7296
ition	-7297
anak	-7298
▁boyu	-7299
▁beyan	-7300
▁Öncelikle	-7301
uman	-7302
▁kazandı	-7303
▁İK	-7304
▁Doğum	-7305
▁duruma	-7306
▁Gu	-7307
▁kg	-7308
otiv	-7309
▁cüml	-7310
tral	-7311
▁alımı	-7312
▁saati	-7313
▁fiyatlar	-7314
▁güne	-7315
▁gördük	-7316
▁inceley	-7317
▁sağlığı	-7318
▁Platform	-7319
▁değin	-7320
▁müs	-7321
likte	-7322
▁Hesap	-7323
▁Dikkat	-7324
▁ulusal	-7325
▁inf	-7326
▁rej	-7327
▁Çat	-7328
▁hayran	-7329
▁MU	-7330
İz	-7331
▁ST	-7332
siye	-7333
▁Öğretim	-7334
▁başladığ	-7335
▁cem	-7336
▁edici	-7337
▁Ker	-7338
▁itiraz	-7339
.(	-7340
END	-7341
▁bağış	-7342
▁farkı	-7343
▁IN	-7344
lanmaz	-7345
İTESİ	-7346
▁garanti	-7347
▁dakikada	-7348
▁bonus	-7349
▁işleri	-7350
▁yanına	-7351
▁sanırım	-7352
▁Kategori	-7353
api	-7354
diven	-7355
▁Konut	-7356
melidir	-7357
▁gereği	-7358
ff	-7359
abi	-7360
kileri	-7361
▁fayda	-7362
▁Sipariş	-7363
▁Oyunları	-7364
▁aralarında	-7365
şu	-7366
şek	-7367
▁bulam	-7368
onun	-7369
▁aldık	-7370
▁buldu	-7371
▁ml	-7372
▁ism	-7373
▁adlandır	-7374
▁komisyon	-7375
▁soruşturma	-7376
pro	-7377
▁meyve	-7378
ms	-7379
▁tasarruf	-7380
sis	-7381
▁OT	-7382
able	-7383
incan	-7384
▁Davut	-7385
▁Me	-7386
weet	-7387
▁eşya	-7388
▁toptan	-7389
idi	-7390
▁yav	-7391
azin	-7392
▁konularda	-7393
▁günün	-7394
CD	-7395
-15	-7396
tuğu	-7397
▁Umar	-7398
▁klima	-7399
▁haberler	-7400
.'	-7401
tıcı	-7402
▁hik	-7403
▁sonuçlar	-7404
▁Hindistan	-7405
jen	-7406
lec	-7407
▁Kore	-7408
▁Duvar	-7409
SY	-7410
▁aral	-7411
engiz	-7412
▁elbette	-7413
▁Bilgileri	-7414
des	-7415
İNİ	-7416
▁bütç	-7417
▁2005	-7418
▁AM	-7419
▁tasarımı	-7420
zat	-7421
▁coğraf	-7422
▁kazanmak	-7423
▁tamamlan	-7424
ORU	-7425
▁tv	-7426
▁Bahar	-7427
▁babası	-7428
dağı	-7429
▁Düğün	-7430
▁geçici	-7431
▁Ail	-7432
▁39	-7433
udum	-7434
çisi	-7435
▁birşey	-7436
▁sürücü	-7437
ılmasını	-7438
iliş	-7439
▁olabilirsiniz	-7440
▁Sez	-7441
▁kanıt	-7442
▁metrek	-7443
▁Personel	-7444
▁örgütü	-7445
▁bilimsel	-7446
ukur	-7447
▁Çıkma	-7448
▁ال	-7449
▁mavi	-7450
▁bedel	-7451
▁temas	-7452
▁Tiyatro	-7453
▁Şikayet	-7454
▁Tag	-7455
▁ayda	-7456
▁antren	-7457
&#	-7458
▁you	-7459
▁Ünlü	-7460
▁Hastalık	-7461
▁Hürriyet	-7462
yiz	-7463
▁hanım	-7464
▁Gid	-7465
▁Başvuru	-7466
avuş	-7467
▁Tamam	-7468
▁eğlenceli	-7469
ding	-7470
▁Nec	-7471
▁edildiği	-7472
▁getirmek	-7473
▁gerektiği	-7474
▁47	-7475
▁dalg	-7476
▁bulma	-7477
▁we	-7478
▁yedi	-7479
▁öncesinde	-7480
ektif	-7481
▁yolunda	-7482
▁Tük	-7483
losuz	-7484
▁üstü	-7485
▁harit	-7486
▁istis	-7487
diklerini	-7488
itler	-7489
▁kulüp	-7490
rimenkul	-7491
▁ec	-7492
▁me	-7493
maların	-7494
▁kurumsal	-7495
▁özellikler	-7496
▁Tık	-7497
▁mümkündür	-7498
▁yatırımcı	-7499
sav	-7500
ARET	-7501
▁Rum	-7502
▁çey	-7503
▁Sezon	-7504
leki	-7505
aklar	-7506
▁cumhur	-7507
▁noktası	-7508
▁Sık	-7509
▁ağz	-7510
▁geril	-7511
▁biridir	-7512
▁mühendis	-7513
▁Beş	-7514
▁sunulan	-7515
▁istey	-7516
▁edebiyat	-7517
KEZ	-7518
▁küt	-7519
▁vir	-7520
▁Makine	-7521
nuv	-7522
undu	-7523
▁belgesi	-7524
▁vek	-7525
▁süreçte	-7526
▁teklifi	-7527
vin	-7528
▁Techn	-7529
▁Yarış	-7530
fed	-7531
oom	-7532
cılığ	-7533
▁verim	-7534
▁elbise	-7535
▁muhtem	-7536
▁kimyasal	-7537
ÖK	-7538
/2019	-7539
▁anlar	-7540
▁bozul	-7541
▁600	-7542
▁Türkmen	-7543
▁barındır	-7544
▁mir	-7545
▁makyaj	-7546
unç	-7547
üzgar	-7548
▁iyice	-7549
▁içeriğ	-7550
▁satışı	-7551
▁müdahal	-7552
▁Terc	-7553
▁netic	-7554
▁hakaret	-7555
▁belirlenen	-7556
▁TİC	-7557
ağında	-7558
ağıtım	-7559
▁masraf	-7560
▁kazanan	-7561
▁olmadığ	-7562
GE	-7563
lüğe	-7564
▁Yunanistan	-7565
▁YER	-7566
▁are	-7567
▁koc	-7568
▁Tabi	-7569
ümin	-7570
ever	-7571
ota	-7572
ONOM	-7573
________________	-7574
▁Ha	-7575
ics	-7576
▁savunma	-7577
▁bölgesindeki	-7578
▁sanal	-7579
▁alanları	-7580
gur	-7581
▁TBMM	-7582
▁Gec	-7583
▁olacağı	-7584
stil	-7585
▁Size	-7586
▁değilim	-7587
▁sız	-7588
▁kılı	-7589
▁maçında	-7590
acaksınız	-7591
▁Açıklama	-7592
lup	-7593
tam	-7594
▁KAT	-7595
lıkta	-7596
▁Yatak	-7597
▁meclis	-7598
▁istihdam	-7599
▁yerlerde	-7600
lamalar	-7601
OV	-7602
tih	-7603
TT	-7604
▁sigort	-7605
▁iletişime	-7606
-03	-7607
olama	-7608
▁mensup	-7609
▁kolaylaştır	-7610
LIĞI	-7611
jinal	-7612
▁emekli	-7613
▁Makinesi	-7614
oter	-7615
▁Mir	-7616
▁beyin	-7617
▁Dijital	-7618
paz	-7619
ste	-7620
reat	-7621
▁Ven	-7622
▁Alışveriş	-7623
TAL	-7624
▁85	-7625
▁Şiş	-7626
▁Farklı	-7627
▁günden	-7628
▁verimli	-7629
İYET	-7630
▁otelleri	-7631
ISI	-7632
▁görm	-7633
atları	-7634
errahi	-7635
▁Savaşı	-7636
▁görüyor	-7637
▁3-	-7638
emey	-7639
▁Kartal	-7640
Kay	-7641
▁yaklaşım	-7642
▁Resim	-7643
Bak	-7644
▁John	-7645
▁yapıp	-7646
▁biçim	-7647
▁bez	-7648
▁çök	-7649
▁Frag	-7650
▁ilave	-7651
▁hastalığı	-7652
avul	-7653
ical	-7654
unuzun	-7655
emeleri	-7656
▁inşallah	-7657
▁önümüzdeki	-7658
▁sevg	-7659
▁Orhan	-7660
▁ölçüde	-7661
▁mit	-7662
▁edeceğiz	-7663
arch	-7664
▁Bol	-7665
mos	-7666
▁izlen	-7667
diy	-7668
▁//	-7669
▁Gol	-7670
▁masa	-7671
▁hediy	-7672
▁taksit	-7673
▁15.	-7674
▁lam	-7675
unlar	-7676
unuza	-7677
▁Meclisi	-7678
▁Emir	-7679
▁kayde	-7680
▁üstünde	-7681
▁miktarda	-7682
▁Muğla	-7683
▁yurtd	-7684
▁Yüksel	-7685
▁çocuğun	-7686
▁hd	-7687
cılığı	-7688
▁maddesi	-7689
ıldığında	-7690
rit	-7691
Allah	-7692
aborat	-7693
▁dikkatli	-7694
▁46	-7695
▁ısı	-7696
▁edilmektedir	-7697
HAN	-7698
▁6,	-7699
▁üm	-7700
▁nelerdir	-7701
▁Mutfak	-7702
Top	-7703
▁başı	-7704
▁Enstit	-7705
▁klasik	-7706
▁olunca	-7707
▁beslenme	-7708
nav	-7709
atın	-7710
▁eleman	-7711
oid	-7712
▁ÖĞ	-7713
▁2017,	-7714
▁silin	-7715
▁tazmin	-7716
üman	-7717
▁Ziraat	-7718
▁Yerel	-7719
▁yoktu	-7720
▁parmak	-7721
ruk	-7722
9)	-7723
▁Oto	-7724
▁Çiz	-7725
pınar	-7726
▁Eg	-7727
▁açıldı	-7728
▁temsilc	-7729
iller	-7730
?"	-7731
▁(3	-7732
▁Bana	-7733
▁Havalimanı	-7734
▁43	-7735
▁yumuşak	-7736
▁rehber	-7737
amayacak	-7738
▁emniyet	-7739
▁Çocuklar	-7740
▁güvenliği	-7741
▁Dağ	-7742
▁hiss	-7743
▁Satın	-7744
▁olmayı	-7745
itif	-7746
ulmaz	-7747
▁Amaç	-7748
/1	-7749
▁İb	-7750
onsor	-7751
▁Tanıt	-7752
▁numaralı	-7753
▁verilmesi	-7754
▁geleneksel	-7755
▁Hey	-7756
▁Çob	-7757
▁şok	-7758
▁Char	-7759
▁arşiv	-7760
cell	-7761
gut	-7762
▁64	-7763
▁Gam	-7764
▁yürür	-7765
▁civarında	-7766
▁Çözüm	-7767
leştirme	-7768
▁saatlerinde	-7769
dün	-7770
▁ndan	-7771
▁YÖNET	-7772
▁ekmek	-7773
▁metin	-7774
▁Sağlığı	-7775
▁hali	-7776
▁EUR	-7777
▁Cilt	-7778
▁sırt	-7779
▁kilit	-7780
On	-7781
eck	-7782
▁attı	-7783
▁ihal	-7784
▁kons	-7785
▁medy	-7786
▁uygulamaları	-7787
▁Gr	-7788
kırı	-7789
ardak	-7790
ıbbi	-7791
▁güz	-7792
▁firmamız	-7793
esto	-7794
▁1.5	-7795
evler	-7796
lasman	-7797
▁pencer	-7798
▁inceleme	-7799
▁Elektronik	-7800
▁öt	-7801
▁Süt	-7802
▁Kalit	-7803
▁Sabah	-7804
▁Takip	-7805
leyecek	-7806
▁Akıllı	-7807
▁kel	-7808
▁darb	-7809
▁Afyon	-7810
▁Gelin	-7811
▁Zar	-7812
▁Belki	-7813
▁çekici	-7814
anızı	-7815
▁vade	-7816
suzluk	-7817
talama	-7818
▁2018,	-7819
book	-7820
▁USB	-7821
▁Şar	-7822
▁kızı	-7823
▁maçta	-7824
▁AP	-7825
EHİR	-7826
stra	-7827
amızda	-7828
acağımız	-7829
ağının	-7830
▁enfeksiyon	-7831
ced	-7832
▁şeyin	-7833
▁anlattı	-7834
▁vatandaşlar	-7835
aly	-7836
▁Ul	-7837
outube	-7838
▁eklem	-7839
▁MERKEZ	-7840
▁Sekret	-7841
SI	-7842
▁kenar	-7843
▁daire	-7844
▁sözleşme	-7845
pat	-7846
▁BUL	-7847
▁gidiş	-7848
▁Müşteri	-7849
▁fırsatı	-7850
▁bulunmak	-7851
dayız	-7852
▁aley	-7853
▁Kapak	-7854
▁Boyutu	-7855
▁Soğ	-7856
Özel	-7857
lobal	-7858
▁Onur	-7859
▁kimi	-7860
lasyon	-7861
mik	-7862
▁meydan	-7863
▁süredir	-7864
▁Hikay	-7865
▁kaybı	-7866
▁saatleri	-7867
▁sunmaktadır	-7868
etle	-7869
▁log	-7870
▁gayret	-7871
▁ikram	-7872
tra	-7873
▁Ph	-7874
▁Kelimeler	-7875
▁Gay	-7876
▁verme	-7877
▁Bedava	-7878
▁Ürünleri	-7879
oker	-7880
▁parlak	-7881
▁verici	-7882
▁yapılıyor	-7883
melik	-7884
▁14.	-7885
▁Seçim	-7886
▁çocukları	-7887
1⁄	-7888
ayolu	-7889
atandaş	-7890
▁yolculuğ	-7891
▁günümüzde	-7892
ites	-7893
0000	-7894
▁zorluk	-7895
▁bizlere	-7896
▁Saf	-7897
▁cami	-7898
Ankara	-7899
memesi	-7900
▁giyim	-7901
▁mimar	-7902
▁sürüyor	-7903
oks	-7904
val	-7905
irdağ	-7906
▁Mücad	-7907
▁yargı	-7908
/2	-7909
dere	-7910
▁doğrul	-7911
▁festiv	-7912
▁Bununla	-7913
▁kaybeden	-7914
Dr	-7915
Ek	-7916
io	-7917
▁kahve	-7918
▁ÇALIŞ	-7919
▁firması	-7920
ings	-7921
▁olası	-7922
landığı	-7923
▁eklendi	-7924
▁kullandığı	-7925
▁akış	-7926
▁gram	-7927
▁seçimi	-7928
▁Kanunun	-7929
▁Konular	-7930
▁kimsenin	-7931
▁YENİ	-7932
▁çıkmış	-7933
▁yaralandı	-7934
▁TÜ	-7935
ükle	-7936
▁kalır	-7937
▁söylen	-7938
ilmesine	-7939
▁dul	-7940
hisar	-7941
▁çekim	-7942
▁fet	-7943
▁düzeyde	-7944
esun	-7945
▁Boş	-7946
▁meyv	-7947
▁Korum	-7948
▁bekliyoruz	-7949
▁ANK	-7950
▁damar	-7951
▁Bileti	-7952
▁Salonu	-7953
▁Bayanlar	-7954
-04	-7955
▁{"	-7956
▁işgal	-7957
ilmesini	-7958
▁olmaması	-7959
▁tamir	-7960
▁olduğum	-7961
▁kıymet	-7962
▁720	-7963
▁BAY	-7964
▁Kolye	-7965
▁komut	-7966
daa	-7967
▁Temsil	-7968
▁düzenleme	-7969
OZ	-7970
▁stat	-7971
▁Akadem	-7972
kap	-7973
ürken	-7974
▁Aday	-7975
abalık	-7976
TD	-7977
▁41	-7978
▁panel	-7979
▁kamyon	-7980
▁bireysel	-7981
▁Çank	-7982
▁anlamı	-7983
▁bilmiyorum	-7984
PG	-7985
▁yağı	-7986
▁olayı	-7987
▁mahall	-7988
dil	-7989
▁sik	-7990
▁Kurt	-7991
▁seven	-7992
▁Aksesuar	-7993
▁yapıldığı	-7994
ness	-7995
▁Koz	-7996
▁seri	-7997
▁devletin	-7998
steri	-7999
▁diyebilir	-8000
▁akr	-8001
▁Lond	-8002
▁ÜNİV	-8003
▁Birçok	-8004
▁sessiz	-8005
▁PC	-8006
▁Teb	-8007
▁Kolay	-8008
▁Dublaj	-8009
igh	-8010
▁gördüm	-8011
▁donanım	-8012
▁Biy	-8013
▁Çor	-8014
▁Roma	-8015
ilerde	-8016
▁şekli	-8017
▁arıyor	-8018
▁sizleri	-8019
pas	-8020
▁Tipi	-8021
▁hatt	-8022
▁araştırmalar	-8023
▁Ağr	-8024
▁sez	-8025
▁gözük	-8026
▁yıllardır	-8027
▁Key	-8028
▁Şif	-8029
sızın	-8030
▁olağan	-8031
ohum	-8032
ilikon	-8033
uzel	-8034
▁Dost	-8035
▁nüfus	-8036
▁etkiley	-8037
▁petrol	-8038
▁maalesef	-8039
hand	-8040
Haber	-8041
▁Takı	-8042
▁topr	-8043
▁artan	-8044
▁sinem	-8045
▁açıklandı	-8046
▁altını	-8047
▁derecede	-8048
▁GÜ	-8049
aylı	-8050
▁Birinci	-8051
▁52	-8052
back	-8053
▁Sorum	-8054
ule	-8055
▁Rep	-8056
ırnak	-8057
▁Olan	-8058
▁olamaz	-8059
▁sürece	-8060
▁çalışır	-8061
yl	-8062
ula	-8063
▁Unut	-8064
▁söylemek	-8065
▁Fab	-8066
ısıyla	-8067
▁Tabii	-8068
▁yapıyoruz	-8069
▁54	-8070
▁hayv	-8071
▁alışkan	-8072
▁yaşıyor	-8073
▁kuralları	-8074
▁HAY	-8075
▁kusur	-8076
▁içeriği	-8077
▁İspanya	-8078
▁merkezinde	-8079
PE	-8080
kınma	-8081
▁tiyatro	-8082
▁çalışmalarını	-8083
##	-8084
Net	-8085
▁Hoc	-8086
adığım	-8087
ALL	-8088
▁from	-8089
▁stan	-8090
mekten	-8091
▁grafik	-8092
▁tebrik	-8093
▁Harit	-8094
▁Paket	-8095
ersoneli	-8096
lerinize	-8097
▁Kullanım	-8098
▁ürünlerin	-8099
isin	-8100
▁mali	-8101
▁öncelik	-8102
▁zamanlar	-8103
St	-8104
way	-8105
▁Mo	-8106
mat	-8107
▁Isp	-8108
▁izlem	-8109
▁Edirne	-8110
Fiyatları	-8111
▁Tec	-8112
▁Elbise	-8113
▁azından	-8114
▁gerçekleşen	-8115
atlı	-8116
▁Klima	-8117
▁Cinsel	-8118
▁lastik	-8119
▁Festivali	-8120
▁kutu	-8121
▁havuz	-8122
▁kendimi	-8123
FF	-8124
lash	-8125
▁mesajı	-8126
ric	-8127
▁incelen	-8128
iver	-8129
▁Set	-8130
▁gelmesi	-8131
▁hayatta	-8132
şet	-8133
▁Keş	-8134
▁Danış	-8135
▁Dolar	-8136
▁kişiyi	-8137
▁yorumları	-8138
▁İlişkiler	-8139
▁kullanılması	-8140
▁58	-8141
▁Başar	-8142
ılmaktadır	-8143
ININ	-8144
ısal	-8145
▁len	-8146
▁Müdürlüğ	-8147
TİR	-8148
▁Sm	-8149
▁etmiştir	-8150
▁felse	-8151
▁gelişmiş	-8152
▁Naz	-8153
▁sıvı	-8154
elerek	-8155
▁Şubesi	-8156
▁soruları	-8157
("	-8158
imp	-8159
şak	-8160
▁Ukray	-8161
▁yorumu	-8162
▁harekete	-8163
leğ	-8164
urn	-8165
▁19.	-8166
menizi	-8167
▁zemin	-8168
larınızın	-8169
▁Bunların	-8170
cüsü	-8171
▁Giyim	-8172
Kon	-8173
▁Öte	-8174
▁Teknoloj	-8175
▁Federasyonu	-8176
▁2013,	-8177
ds	-8178
▁Pen	-8179
▁dans	-8180
▁Selçuk	-8181
ıldığını	-8182
▁Misafir	-8183
▁engelli	-8184
Ev	-8185
Sİ	-8186
ndeki	-8187
▁mevzu	-8188
▁yüküm	-8189
▁elinde	-8190
tive	-8191
alanı	-8192
▁Onlar	-8193
▁öğrencileri	-8194
ora	-8195
▁Kel	-8196
▁halkı	-8197
▁musunuz	-8198
▁plastik	-8199
▁yetersiz	-8200
▁"0	-8201
▁Adnan	-8202
▁anı	-8203
▁Adıyaman	-8204
ediğini	-8205
▁BAŞKAN	-8206
▁yapmanız	-8207
▁IŞ	-8208
▁dili	-8209
▁alkol	-8210
▁beklenen	-8211
ase	-8212
eleriyle	-8213
▁Politik	-8214
AYA	-8215
▁OS	-8216
▁TH	-8217
ledim	-8218
▁bitk	-8219
▁onur	-8220
▁evinde	-8221
▁satışa	-8222
▁bekleniyor	-8223
İMİZ	-8224
▁kov	-8225
ited	-8226
▁Aziz	-8227
▁Tatlı	-8228
AYIN	-8229
alel	-8230
▁Suç	-8231
▁alması	-8232
▁asit	-8233
▁hariç	-8234
▁aykırı	-8235
▁alınarak	-8236
gir	-8237
▁ris	-8238
ollow	-8239
▁halen	-8240
jpg	-8241
adir	-8242
▁köp	-8243
▁aktivit	-8244
▁olmuyor	-8245
çü	-8246
▁dua	-8247
umuzun	-8248
▁Timeline	-8249
▁aksesuar	-8250
▁20.	-8251
▁kelime	-8252
▁TÜRKİYE	-8253
▁güzellik	-8254
▁rö	-8255
▁büyüme	-8256
▁İlç	-8257
klar	-8258
▁SAT	-8259
▁krem	-8260
emem	-8261
▁Oğuz	-8262
▁Değiştir	-8263
ory	-8264
▁Mi	-8265
▁Öyle	-8266
▁Okulu	-8267
▁konuyu	-8268
▁İht	-8269
▁Test	-8270
▁bakalım	-8271
▁Yaklaşık	-8272
▁kiralama	-8273
sn	-8274
ekler	-8275
▁Kötü	-8276
▁işlemler	-8277
DF	-8278
Evet	-8279
▁Vide	-8280
▁sertifik	-8281
▁Ruh	-8282
▁yönde	-8283
▁muay	-8284
▁Etiket	-8285
▁İr	-8286
simum	-8287
▁sürecinde	-8288
umuzu	-8289
ışlı	-8290
obile	-8291
▁Rabb	-8292
▁kalıcı	-8293
▁°	-8294
▁7,	-8295
▁(3)	-8296
▁Acil	-8297
▁kâ	-8298
avel	-8299
▁sag	-8300
culuk	-8301
▁oynay	-8302
▁IM	-8303
▁uc	-8304
▁Red	-8305
▁çant	-8306
▁Yorumlar	-8307
▁olduğunda	-8308
▁uygulamalar	-8309
▁abon	-8310
ebilen	-8311
▁galibiyet	-8312
▁Ref	-8313
▁dük	-8314
leyip	-8315
matik	-8316
memek	-8317
▁sözü	-8318
▁Kağıt	-8319
kale	-8320
▁Blu	-8321
▁KUL	-8322
▁Sayı	-8323
▁araz	-8324
▁sigara	-8325
nn	-8326
Pro	-8327
icio	-8328
▁Ulaş	-8329
▁bahar	-8330
ski	-8331
▁dk	-8332
▁USD	-8333
▁serg	-8334
▁uyan	-8335
▁Çeşit	-8336
▁sinema	-8337
▁isterim	-8338
▁Toplantı	-8339
▁uygulanan	-8340
kz	-8341
lılığ	-8342
▁Elem	-8343
▁gördü	-8344
▁çeviri	-8345
▁yoğ	-8346
amaya	-8347
▁döviz	-8348
▁önemi	-8349
▁Bavul	-8350
▁geldiğini	-8351
üyü	-8352
▁56	-8353
▁Koş	-8354
tikten	-8355
▁yetişkin	-8356
▁arkadaşım	-8357
1]	-8358
▁halı	-8359
▁pişir	-8360
▁tarzı	-8361
▁Herkes	-8362
▁Dairesi	-8363
Ah	-8364
▁PAR	-8365
▁sunum	-8366
▁Sorular	-8367
▁konular	-8368
Yİ	-8369
ceği	-8370
eğiyle	-8371
[/	-8372
▁Cad	-8373
▁sunar	-8374
▁Ücret	-8375
▁ѕ	-8376
uel	-8377
ater	-8378
▁Kapı	-8379
▁Çanta	-8380
▁ettiler	-8381
▁Instagram	-8382
artman	-8383
▁değildi	-8384
▁yolları	-8385
▁Hollanda	-8386
ars	-8387
▁Cop	-8388
▁Giz	-8389
▁Yavuz	-8390
▁yel	-8391
▁denk	-8392
▁YAŞ	-8393
▁keyf	-8394
▁tarifi	-8395
▁Katılım	-8396
▁memnuniyet	-8397
GK	-8398
çilik	-8399
▁bağlam	-8400
▁yaprak	-8401
▁Otomatik	-8402
PSS	-8403
tip	-8404
▁fen	-8405
▁günah	-8406
▁dayalı	-8407
imizle	-8408
▁Kurtul	-8409
▁sö	-8410
▁traf	-8411
▁gerekse	-8412
▁veriler	-8413
itika	-8414
cük	-8415
üce	-8416
▁kuzey	-8417
-18	-8418
▁ila	-8419
gresi	-8420
▁100%	-8421
▁kahv	-8422
▁süreli	-8423
▁Başka	-8424
▁alabilir	-8425
▁seviyorum	-8426
▁zamanında	-8427
zen	-8428
▁tüketim	-8429
▁Danışman	-8430
▁Max	-8431
CH	-8432
TS	-8433
▁SU	-8434
metik	-8435
▁ekipman	-8436
▁geçiyor	-8437
▁olmaktan	-8438
tas	-8439
öly	-8440
▁Dom	-8441
▁Rob	-8442
▁okur	-8443
▁şifr	-8444
▁ilçesi	-8445
▁sunduğu	-8446
▁bekleyen	-8447
▁Halil	-8448
▁bileş	-8449
▁kariyer	-8450
▁ülkeler	-8451
iğe	-8452
king	-8453
elif	-8454
▁dür	-8455
so	-8456
lıca	-8457
tülü	-8458
▁GER	-8459
▁tay	-8460
madım	-8461
▁şartları	-8462
veya	-8463
▁araçları	-8464
▁diliyorum	-8465
ât	-8466
linik	-8467
parator	-8468
▁dernek	-8469
OST	-8470
▁Kör	-8471
▁değerlendirme	-8472
▁Ada	-8473
▁uydu	-8474
▁Villa	-8475
▁mantık	-8476
▁iyileştir	-8477
▁Bür	-8478
▁tuş	-8479
▁Ateş	-8480
▁düşünce	-8481
▁gazetec	-8482
▁Nakliyat	-8483
▁€	-8484
lâm	-8485
viv	-8486
akal	-8487
esli	-8488
▁gib	-8489
▁Baskı	-8490
▁okuma	-8491
madık	-8492
▁Star	-8493
▁Abdül	-8494
▁Tanrı	-8495
elendir	-8496
▁rahatlıkla	-8497
▁$*	-8498
larken	-8499
talyan	-8500
▁kapak	-8501
▁mezar	-8502
▁Anayasa	-8503
▁gelince	-8504
▁kalitesi	-8505
ektaş	-8506
▁adamı	-8507
IST	-8508
mac	-8509
▁Evde	-8510
▁Plus	-8511
▁rengi	-8512
inizden	-8513
▁Bülent	-8514
▁mektup	-8515
▁tıklayınız	-8516
uawe	-8517
▁açtı	-8518
▁sınırlı	-8519
▁Sn	-8520
▁Arka	-8521
▁Dönüş	-8522
▁haklı	-8523
uvarlak	-8524
▁ulaşmak	-8525
omi	-8526
▁sayg	-8527
▁Mardin	-8528
ELİK	-8529
▁sorunsuz	-8530
▁Basketbol	-8531
’’	-8532
▁pi	-8533
▁bomb	-8534
İLM	-8535
▁kıv	-8536
▁turist	-8537
><	-8538
Tüm	-8539
▁bina	-8540
▁korku	-8541
▁Kardeş	-8542
çu	-8543
rib	-8544
yeri	-8545
İNİN	-8546
▁Vergi	-8547
▁konser	-8548
▁işletme	-8549
53	-8550
▁hesabı	-8551
▁günleri	-8552
▁görüyoruz	-8553
IYOR	-8554
▁Dan	-8555
▁Teklif	-8556
▁Jandarma	-8557
eydi	-8558
oyun	-8559
İNCİ	-8560
▁şunu	-8561
54	-8562
▁Sc	-8563
▁Oku	-8564
cının	-8565
▁vatan	-8566
▁bizimle	-8567
▁sebeple	-8568
▁seçeneği	-8569
▁yaptığımız	-8570
▁BEN	-8571
▁diyorum	-8572
▁yapmayı	-8573
▁hizmetler	-8574
off	-8575
▁Aslan	-8576
lig	-8577
▁katı	-8578
▁bakımı	-8579
▁49	-8580
▁istedim	-8581
▁bazıları	-8582
▁SPOR	-8583
melerini	-8584
▁alanlarda	-8585
▁Sistemleri	-8586
▁Hacı	-8587
▁ÖZEL	-8588
▁gerektiğ	-8589
▁unutmayın	-8590
inst	-8591
leket	-8592
▁çizgi	-8593
▁Rüyada	-8594
yat	-8595
Hotel	-8596
endiğ	-8597
▁Öztürk	-8598
▁Ardından	-8599
erif	-8600
▁110	-8601
▁Salih	-8602
▁arkadas	-8603
ott	-8604
▁Bağlan	-8605
▁Hareket	-8606
▁özgürlük	-8607
ekte	-8608
▁sıkı	-8609
▁Zeytin	-8610
▁protokol	-8611
/11	-8612
▁ha	-8613
▁yör	-8614
ığını	-8615
▁%100	-8616
▁çağr	-8617
▁öneri	-8618
▁versiyon	-8619
Uy	-8620
▁Kulak	-8621
▁Silah	-8622
▁muhaf	-8623
▁Komisyonu	-8624
AMA	-8625
iden	-8626
▁Düşün	-8627
rd	-8628
hab	-8629
▁İS	-8630
eeee	-8631
▁Eve	-8632
Çocuk	-8633
▁Şeker	-8634
liyoruz	-8635
▁Öğrenci	-8636
▁Filmleri	-8637
▁Kahramanmaraş	-8638
▁Oldu	-8639
▁ağız	-8640
▁baktığ	-8641
▁ker	-8642
uvalet	-8643
▁Devamı	-8644
kaya	-8645
▁Mimar	-8646
▁tavsiy	-8647
yaş	-8648
▁bıçak	-8649
▁Hotels	-8650
▁sandal	-8651
▁Öğrenciler	-8652
DAR	-8653
▁EŞ	-8654
▁Ül	-8655
mark	-8656
▁müsa	-8657
▁Harek	-8658
Düz	-8659
mece	-8660
NOLOJ	-8661
▁sürüm	-8662
▁ambalaj	-8663
03	-8664
arlı	-8665
▁atık	-8666
":{"	-8667
▁HAS	-8668
▁Kişi	-8669
emiyor	-8670
▁etkiler	-8671
▁kendinizi	-8672
losu	-8673
▁sitemiz	-8674
▁göstermektedir	-8675
▁şük	-8676
▁ürünün	-8677
BR	-8678
yim	-8679
▁albüm	-8680
▁etkileri	-8681
raç	-8682
▁Pl	-8683
abak	-8684
işan	-8685
▁islam	-8686
▁derken	-8687
▁tarihinden	-8688
▁uyku	-8689
ose	-8690
▁şirketleri	-8691
َا	-8692
ual	-8693
blog	-8694
▁lit	-8695
▁hattı	-8696
▁Şarkı	-8697
lamaları	-8698
▁Günümüzde	-8699
At	-8700
raj	-8701
▁Roman	-8702
▁dekorasyon	-8703
▁#1	-8704
▁GİR	-8705
▁Kalp	-8706
▁Oysa	-8707
lanarak	-8708
▁olmasa	-8709
▁alınacak	-8710
▁finansal	-8711
▁Davutoğlu	-8712
zaman	-8713
▁Durum	-8714
▁başladık	-8715
▁Fit	-8716
▁Başak	-8717
▁Firma	-8718
▁sunmak	-8719
▁olabilecek	-8720
▁Yerler	-8721
▁potansiyel	-8722
adın	-8723
▁lüks	-8724
▁mail	-8725
▁omuz	-8726
▁etmez	-8727
▁kaşığı	-8728
aci	-8729
▁hükm	-8730
▁denir	-8731
▁alakalı	-8732
▁bildirdi	-8733
pon	-8734
anıza	-8735
▁irti	-8736
▁Kiralık	-8737
▁yılının	-8738
mekteyiz	-8739
▁Siteleri	-8740
ALIK	-8741
like	-8742
▁Seti	-8743
SEL	-8744
ily	-8745
akende	-8746
▁bitki	-8747
▁halka	-8748
▁robot	-8749
▁blok	-8750
eğinde	-8751
▁planı	-8752
▁kampanya	-8753
▁Geçtiğimiz	-8754
▁isteyenler	-8755
▁kalıp	-8756
▁Modern	-8757
▁Otobüs	-8758
unt	-8759
▁Pap	-8760
Gurme	-8761
▁cevabı	-8762
——	-8763
urun	-8764
gilizce	-8765
▁durumun	-8766
▁düşünül	-8767
▁kurulum	-8768
▁kullanma	-8769
▁yapılmaktadır	-8770
▁sün	-8771
▁Tunc	-8772
▁Erdem	-8773
ason	-8774
▁Puanı	-8775
▁Durumu	-8776
▁kriter	-8777
▁olmanın	-8778
▁yakalandı	-8779
▁küç	-8780
▁şimd	-8781
▁etiket	-8782
▁toplumun	-8783
▁Zonguldak	-8784
work	-8785
widget	-8786
▁vadeli	-8787
▁Savunma	-8788
▁gelmektedir	-8789
SUN	-8790
▁Ast	-8791
▁Kıl	-8792
▁Ulu	-8793
▁Baba	-8794
ANI	-8795
▁işyer	-8796
▁çekiyor	-8797
▁firmaları	-8798
ref	-8799
ayas	-8800
enci	-8801
▁ON	-8802
▁zer	-8803
▁salg	-8804
▁yasa	-8805
▁imkân	-8806
▁duruyor	-8807
taur	-8808
Beğen	-8809
▁NE	-8810
▁Yık	-8811
▁üzeri	-8812
▁sözler	-8813
fil	-8814
▁Digg	-8815
▁yıla	-8816
▁kırık	-8817
▁profil	-8818
▁noktasına	-8819
DÜR	-8820
ING	-8821
▁dog	-8822
▁çocuğu	-8823
▁Sevgili	-8824
▁şeyleri	-8825
ilmelidir	-8826
▁Hel	-8827
▁hid	-8828
▁Resort	-8829
▁Karaman	-8830
cesi	-8831
▁ziy	-8832
lerdi	-8833
▁Uzak	-8834
▁sesi	-8835
▁Marmara	-8836
▁projeler	-8837
▁sizlerle	-8838
IMIZ	-8839
▁oluşturul	-8840
-14	-8841
tası	-8842
▁vası	-8843
52	-8844
CA	-8845
Çok	-8846
▁ÜR	-8847
▁Seb	-8848
ılmak	-8849
▁mün	-8850
ıcısı	-8851
▁vizyon	-8852
▁malzemeleri	-8853
▁milletvekili	-8854
İYAT	-8855
▁ömr	-8856
▁ölçüm	-8857
▁Valisi	-8858
▁restoran	-8859
▁olmayabilir	-8860
ubu	-8861
▁18.	-8862
▁paz	-8863
The	-8864
▁danış	-8865
▁tutan	-8866
▁çatış	-8867
▁psikolojik	-8868
▁IP	-8869
▁ömür	-8870
▁alana	-8871
▁masaj	-8872
▁sahne	-8873
▁öğrenmek	-8874
San	-8875
▁lay	-8876
▁dedik	-8877
▁denem	-8878
▁telekom	-8879
uda	-8880
▁nö	-8881
▁ın	-8882
▁Bilgiler	-8883
▁BEY	-8884
▁His	-8885
▁geride	-8886
▁lideri	-8887
je	-8888
▁Pi	-8889
▁ajans	-8890
▁olsay	-8891
▁hangisi	-8892
malısınız	-8893
▁Nit	-8894
▁Bakır	-8895
▁anlamlı	-8896
▁öğrenildi	-8897
ader	-8898
▁Kerim	-8899
▁Kesin	-8900
▁göğüs	-8901
ft	-8902
▁2004	-8903
▁elbis	-8904
▁hadis	-8905
▁izlemek	-8906
▁Açıklaması	-8907
▁okumak	-8908
▁haftada	-8909
Yar	-8910
ograp	-8911
▁sığın	-8912
▁oluşturmak	-8913
▁nesn	-8914
▁Hedef	-8915
▁Turan	-8916
▁Harita	-8917
▁bildirildi	-8918
FOR	-8919
▁Pa	-8920
fone	-8921
irleri	-8922
▁sürüc	-8923
▁YAT	-8924
ansör	-8925
▁böyl	-8926
▁kafa	-8927
▁zehir	-8928
▁Yalnız	-8929
▁yumurta	-8930
▁fiyatlı	-8931
▁taraftan	-8932
İs	-8933
tiğiniz	-8934
▁benden	-8935
▁Vatandaş	-8936
LAŞ	-8937
▁Tuz	-8938
amadım	-8939
▁düzenlendi	-8940
CU	-8941
AAT	-8942
▁Vi	-8943
▁Mutlu	-8944
▁gelişme	-8945
▁uyuşturucu	-8946
ĞER	-8947
ECEK	-8948
▁16.	-8949
▁katıldığı	-8950
▁değişikliği	-8951
ea	-8952
▁nih	-8953
▁stok	-8954
eceğimiz	-8955
isindeki	-8956
▁bulunması	-8957
▁sisteminin	-8958
▁yal	-8959
▁zirv	-8960
söz	-8961
iplom	-8962
▁Kaymakam	-8963
Kır	-8964
ila	-8965
▁57	-8966
▁We	-8967
ılma	-8968
larımı	-8969
ışıklık	-8970
▁konfor	-8971
▁yargılan	-8972
ADI	-8973
▁Fon	-8974
enize	-8975
▁yönel	-8976
▁yukarıda	-8977
▁karşımıza	-8978
âm	-8979
▁Payla	-8980
omen	-8981
▁gor	-8982
alandır	-8983
▁kurmak	-8984
▁ÜNİVERS	-8985
▁isimleri	-8986
▁ALT	-8987
▁bom	-8988
dılar	-8989
▁views	-8990
▁Kitabı	-8991
▁yapması	-8992
▁17.	-8993
▁büyüt	-8994
▁Otomobil	-8995
-8	-8996
RA	-8997
tah	-8998
/200	-8999
aport	-9000
asebe	-9001
erkan	-9002
0.	-9003
cam	-9004
SPOR	-9005
▁mük	-9006
lıyorum	-9007
▁etmeyi	-9008
▁randev	-9009
▁Komutan	-9010
Ana	-9011
▁ihale	-9012
▁sanay	-9013
▁kayıtlı	-9014
▁belge	-9015
▁şehrin	-9016
▁kontrolü	-9017
IMI	-9018
▁Pir	-9019
▁Japonya	-9020
▁üretilen	-9021
▁yöntemleri	-9022
ILM	-9023
düzü	-9024
▁kalmak	-9025
▁Önemli	-9026
▁güncellem	-9027
▁Bos	-9028
▁yüzlerce	-9029
▁Arkadaşlık	-9030
----------------	-9031
▁vel	-9032
▁Kapat	-9033
▁co	-9034
isim	-9035
rensel	-9036
mıyorum	-9037
üfür	-9038
▁Zira	-9039
▁kamuoy	-9040
▁alırken	-9041
▁istasyon	-9042
oad	-9043
▁hemş	-9044
▁Müzesi	-9045
▁miktarı	-9046
berg	-9047
▁çekir	-9048
▁bırakın	-9049
▁referans	-9050
ÜT	-9051
biz	-9052
ague	-9053
▁İnce	-9054
▁biliyorum	-9055
▁hakkındaki	-9056
EG	-9057
po	-9058
▁Sony	-9059
/24	-9060
ısın	-9061
▁kısmında	-9062
▁olmayacak	-9063
ılaş	-9064
▁DOĞ	-9065
tihar	-9066
Ücretsiz	-9067
ys	-9068
LAK	-9069
eld	-9070
ırsak	-9071
▁vefat	-9072
▁Sektör	-9073
▁Fin	-9074
▁doz	-9075
▁Konak	-9076
▁Geçmiş	-9077
▁dosyası	-9078
Spor	-9079
amini	-9080
▁eğit	-9081
▁gidecek	-9082
▁Üstelik	-9083
lanmaktadır	-9084
BA	-9085
OLU	-9086
denin	-9087
▁Bize	-9088
▁peyn	-9089
▁anlamak	-9090
▁demokrasi	-9091
▁fık	-9092
▁Biraz	-9093
▁bacak	-9094
▁çanta	-9095
▁arız	-9096
▁GENEL	-9097
kay	-9098
▁59	-9099
▁Diyet	-9100
▁sahte	-9101
▁mevsim	-9102
▁olaylar	-9103
▁zararlı	-9104
▁Bisiklet	-9105
▁çevirisi	-9106
▁kilometre	-9107
▁düzenlediği	-9108
▁lek	-9109
glish	-9110
▁çabuk	-9111
▁yorgun	-9112
▁oluşturan	-9113
('	-9114
▁evr	-9115
▁montaj	-9116
▁cinayet	-9117
▁kahvaltı	-9118
ocuğ	-9119
imini	-9120
▁reng	-9121
▁ANKARA	-9122
▁yönetmen	-9123
06	-9124
ünür	-9125
▁Aut	-9126
▁UYG	-9127
▁görüşme	-9128
▁silahlı	-9129
Man	-9130
akar	-9131
yolu	-9132
antin	-9133
portaj	-9134
▁annesi	-9135
▁Vit	-9136
ASYON	-9137
▁iklim	-9138
BO	-9139
üphan	-9140
▁İlaç	-9141
ations	-9142
▁Mükemmel	-9143
DER	-9144
une	-9145
▁PR	-9146
▁coş	-9147
▁BÖLÜM	-9148
▁Mesela	-9149
▁dizisi	-9150
Kur	-9151
▁53	-9152
▁üs	-9153
▁İH	-9154
▁Ayar	-9155
▁döndü	-9156
▁gelerek	-9157
▁katılımcı	-9158
İYAS	-9159
▁sub	-9160
▁Buz	-9161
▁Otur	-9162
▁Beach	-9163
▁Renkli	-9164
▁q	-9165
alm	-9166
bası	-9167
▁kör	-9168
ındık	-9169
▁hekim	-9170
▁dışına	-9171
▁Yorumla	-9172
As	-9173
post	-9174
▁Kaliteli	-9175
▁tehlikeli	-9176
▁Üniversite	-9177
KS	-9178
ald	-9179
imum	-9180
lusu	-9181
üzdan	-9182
▁çalışmaya	-9183
-7	-9184
yst	-9185
▁boya	-9186
▁oranda	-9187
▁piyasa	-9188
▁Black	-9189
▁teker	-9190
▁🙂	-9191
faf	-9192
mesin	-9193
▁fuar	-9194
▁liste	-9195
▁Brezil	-9196
▁muhalef	-9197
göz	-9198
obi	-9199
▁Dizi	-9200
▁Asker	-9201
▁Sinan	-9202
▁sonsuz	-9203
▁Hakları	-9204
▁Belediyespor	-9205
▁Yaşar	-9206
▁plana	-9207
▁ailesi	-9208
▁sayısının	-9209
by	-9210
ÜNY	-9211
ikler	-9212
▁idari	-9213
ojistik	-9214
önü	-9215
▁bulut	-9216
amıyorum	-9217
▁Bo	-9218
▁Hiçbir	-9219
▁mahkeme	-9220
▁işletmeye	-9221
▁95	-9222
▁Ta	-9223
▁KDV	-9224
ilelik	-9225
▁güney	-9226
▁takımın	-9227
▁olmaları	-9228
▁о	-9229
mon	-9230
▁KAN	-9231
▁kurban	-9232
▁İlçesi	-9233
erve	-9234
▁DAH	-9235
eynep	-9236
▁yakış	-9237
▁Mahmut	-9238
▁planlam	-9239
▁BÜY	-9240
sü	-9241
Gir	-9242
▁Nik	-9243
▁İstik	-9244
▁Ukrayna	-9245
ake	-9246
▁por	-9247
▁MADDE	-9248
▁banyo	-9249
▁Evlilik	-9250
▁şüpheli	-9251
udak	-9252
ılış	-9253
▁(0)	-9254
▁Hoca	-9255
▁ısıt	-9256
▁seçin	-9257
▁Yönetmeli	-9258
▁bekliyorum	-9259
utin	-9260
▁Ras	-9261
ebilmesi	-9262
ny	-9263
▁Nef	-9264
▁yiyecek	-9265
sün	-9266
iplin	-9267
▁Oyunu	-9268
ediyesi	-9269
▁oluşur	-9270
▁arasına	-9271
▁genişlet	-9272
!..	-9273
ADA	-9274
kış	-9275
gate	-9276
sinin	-9277
▁Kursu	-9278
▁Uzmanı	-9279
▁görevl	-9280
eksi	-9281
▁Cap	-9282
▁Yılı	-9283
▁Kadir	-9284
▁nis	-9285
▁(200	-9286
çilerin	-9287
▁beslen	-9288
▁kullanıyor	-9289
▁Gizli	-9290
▁Koruma	-9291
▁Numarası	-9292
ÅŸ	-9293
▁etken	-9294
▁raporu	-9295
▁Enstitüsü	-9296
▁Il	-9297
▁(10	-9298
▁vah	-9299
▁ödey	-9300
▁içerir	-9301
▁edilerek	-9302
▁noktasında	-9303
DS	-9304
Dün	-9305
epe	-9306
ahya	-9307
▁açan	-9308
▁ente	-9309
▁Detay	-9310
mesinden	-9311
▁görülür	-9312
▁satılık	-9313
poz	-9314
ımdan	-9315
▁Arda	-9316
▁Araba	-9317
▁oyunun	-9318
▁mahalle	-9319
▁Şef	-9320
ilsin	-9321
▁Akın	-9322
▁frag	-9323
▁ulaştı	-9324
▁demokratik	-9325
/3	-9326
.2012	-9327
▁çizg	-9328
▁kritik	-9329
▁bilgilere	-9330
▁promosyon	-9331
kes	-9332
▁icra	-9333
lılığı	-9334
▁kıyas	-9335
▁mikro	-9336
Trabzon	-9337
▁verdim	-9338
▁Plastik	-9339
▁taşımak	-9340
▁function	-9341
▁deplasman	-9342
▁Est	-9343
▁gözden	-9344
▁görüntüle	-9345
tt	-9346
div	-9347
▁duyurdu	-9348
▁ekonomi	-9349
▁oyuncak	-9350
ingöl	-9351
▁Arslan	-9352
-16	-9353
LEŞ	-9354
▁Bazen	-9355
▁Hanım	-9356
▁aracın	-9357
Sh	-9358
▁muk	-9359
▁ÜRÜN	-9360
Cumhur	-9361
IG	-9362
RL	-9363
▁(4	-9364
▁horm	-9365
▁ikin	-9366
▁gelsin	-9367
▁olasıl	-9368
▁isimler	-9369
artın	-9370
ehmet	-9371
ington	-9372
▁Kabul	-9373
▁ahşap	-9374
-17	-9375
emiyorum	-9376
▁yerlere	-9377
▁yayınlandı	-9378
rağı	-9379
▁bag	-9380
dunuz	-9381
▁toplantısı	-9382
▁fit	-9383
▁ilah	-9384
▁çalışmalarına	-9385
siy	-9386
▁yazdı	-9387
▁birine	-9388
▁örneği	-9389
▁hakkını	-9390
▁sigorta	-9391
aydın	-9392
medik	-9393
ediğim	-9394
▁Çavuş	-9395
▁DV	-9396
▁Cey	-9397
▁Kitab	-9398
▁DÖN	-9399
amalar	-9400
▁bayrak	-9401
▁öğrencilere	-9402
lukla	-9403
▁Toto	-9404
▁evlen	-9405
▁kaybed	-9406
iper	-9407
▁Şer	-9408
▁eşliğinde	-9409
Ne	-9410
▁vol	-9411
▁Halı	-9412
▁etmeniz	-9413
▁göstermek	-9414
▁açma	-9415
101	-9416
ayd	-9417
▁yakıt	-9418
▁yükseliş	-9419
cal	-9420
enli	-9421
▁Umut	-9422
▁içinden	-9423
▁egzersiz	-9424
▁Televizyon	-9425
▁sakat	-9426
eyt	-9427
▁800	-9428
taurant	-9429
▁görmüş	-9430
▁bölgeye	-9431
Kah	-9432
▁Hediye	-9433
▁Gezilecek	-9434
azz	-9435
übe	-9436
▁evi	-9437
▁tey	-9438
▁topu	-9439
▁Geniş	-9440
▁efsan	-9441
▁düzgün	-9442
▁arkasında	-9443
▁Bolu	-9444
▁yeten	-9445
▁Kişisel	-9446
▁sağlamaktadır	-9447
mo	-9448
pm	-9449
ung	-9450
▁Kaş	-9451
▁bulur	-9452
▁Isparta	-9453
▁he	-9454
ğrul	-9455
İNİZ	-9456
▁Por	-9457
▁hur	-9458
üstriyel	-9459
▁bölgesi	-9460
▁wh	-9461
▁gününde	-9462
▁ihtimal	-9463
bahis	-9464
▁2003	-9465
▁bulan	-9466
▁gördüğü	-9467
İŞİM	-9468
▁Hoş	-9469
▁gittik	-9470
OW	-9471
▁HİZ	-9472
▁ago	-9473
▁gereksin	-9474
▁yur	-9475
▁seksi	-9476
▁Cengiz	-9477
▁olduğunca	-9478
▁Bus	-9479
▁sön	-9480
latan	-9481
tiğim	-9482
uawei	-9483
▁Sorun	-9484
▁sporcu	-9485
ildiğinde	-9486
Bel	-9487
▁68	-9488
▁buton	-9489
▁Kamera	-9490
▁çıktığı	-9491
▁başladığı	-9492
-2017	-9493
▁konuya	-9494
▁işletmeler	-9495
lılar	-9496
▁doğan	-9497
▁Seçenek	-9498
▁kalıyor	-9499
▁Notebook	-9500
▁İçişleri	-9501
▁şirketin	-9502
cim	-9503
try	-9504
çası	-9505
▁Bed	-9506
▁kep	-9507
▁nez	-9508
icisi	-9509
▁Anti	-9510
▁Çant	-9511
ersiniz	-9512
odafone	-9513
▁hayatın	-9514
▁Standart	-9515
▁programları	-9516
▁yapt	-9517
▁şeye	-9518
▁dekor	-9519
▁sinyal	-9520
▁yemeği	-9521
▁doktora	-9522
/4	-9523
REN	-9524
ning	-9525
▁devreye	-9526
▁tarihine	-9527
▁Po	-9528
▁21.	-9529
▁Kod	-9530
ıyaka	-9531
▁Cihaz	-9532
▁ahlak	-9533
▁anket	-9534
▁devrim	-9535
▁tutuklandı	-9536
BB	-9537
DP	-9538
▁raf	-9539
ebilirim	-9540
▁	-9541
ılama	-9542
ikolata	-9543
▁DH	-9544
anyol	-9545
ağlık	-9546
uyorlar	-9547
▁Yapılır	-9548
▁pozitif	-9549
kk	-9550
▁IŞİD	-9551
▁send	-9552
▁seyret	-9553
NET	-9554
fir	-9555
çık	-9556
feri	-9557
▁aşkın	-9558
▁bulaş	-9559
▁konferans	-9560
pol	-9561
▁Londra	-9562
ebilmektedir	-9563
ĞÜ	-9564
muştu	-9565
▁karm	-9566
baycan	-9567
▁temsilciler	-9568
▁Mühendisliği	-9569
Ön	-9570
▁KW	-9571
ling	-9572
▁Fazla	-9573
▁niye	-9574
▁cevab	-9575
▁zincir	-9576
▁yaşamını	-9577
kas	-9578
▁GR	-9579
▁Hy	-9580
▁DEM	-9581
▁Çevr	-9582
▁TARİH	-9583
▁bitti	-9584
▁karbon	-9585
▁ortada	-9586
▁olmuştu	-9587
▁çocuklara	-9588
▁milyonlarca	-9589
grid	-9590
▁bizler	-9591
▁geldiğinde	-9592
▁4-	-9593
▁mag	-9594
▁İYİ	-9595
ükleer	-9596
▁işbir	-9597
▁çekme	-9598
▁Oyuncu	-9599
▁fazlası	-9600
iyo	-9601
▁51	-9602
ÜLTÜR	-9603
▁Stad	-9604
▁Düzce	-9605
▁anlatım	-9606
1⁄4	-9607
tısı	-9608
çılar	-9609
▁fazl	-9610
▁sanık	-9611
▁[]	-9612
▁Radyo	-9613
yak	-9614
▁çil	-9615
▁OD	-9616
▁Log	-9617
▁kesi	-9618
▁ailen	-9619
iliğini	-9620
▁Server	-9621
▁karanlık	-9622
▁AŞ	-9623
▁dr	-9624
langıç	-9625
()	-9626
▁gemi	-9627
anların	-9628
▁Mobilya	-9629
ýl	-9630
▁hukuki	-9631
▁oluşum	-9632
▁işletim	-9633
NA	-9634
▁Kud	-9635
▁Oca	-9636
/2017	-9637
tığım	-9638
▁Book	-9639
▁KPSS	-9640
▁Saray	-9641
▁serisi	-9642
▁protein	-9643
▁bire	-9644
▁Gönül	-9645
▁bölün	-9646
▁sordu	-9647
vetleri	-9648
▁Stratej	-9649
▁Telefonu	-9650
PER	-9651
▁rü	-9652
▁karşın	-9653
▁tutmak	-9654
▁Değişik	-9655
▁Mücadele	-9656
udu	-9657
▁8,	-9658
▁>>	-9659
reen	-9660
Namlı	-9661
encere	-9662
▁çekmek	-9663
ALARI	-9664
tadoğu	-9665
ançeşme	-9666
▁kimdir	-9667
peri	-9668
▁Lin	-9669
▁kuy	-9670
▁Adresi	-9671
▁yaptığını	-9672
▁Profesyonel	-9673
cat	-9674
▁gun	-9675
▁gıd	-9676
eysel	-9677
https	-9678
▁Özdemir	-9679
▁Eur	-9680
indices	-9681
▁Sinema	-9682
▁çalışıyoruz	-9683
▁Tarifi	-9684
▁Görüntü	-9685
▁TAB	-9686
▁uğur	-9687
▁Bence	-9688
▁hitap	-9689
▁kullanılarak	-9690
ÇE	-9691
cess	-9692
▁istifa	-9693
NamlıGurme	-9694
▁inanılmaz	-9695
▁ü	-9696
▁KK	-9697
▁MAL	-9698
▁ilanı	-9699
▁Ödeme	-9700
▁edebil	-9701
iyorsunuz	-9702
▁buluştur	-9703
▁milletvek	-9704
▁mask	-9705
laştırma	-9706
▁kategorisinde	-9707
▁UN	-9708
▁Rize	-9709
ülecek	-9710
▁sitede	-9711
▁araçlar	-9712
▁kapsamlı	-9713
Ch	-9714
▁72	-9715
▁tev	-9716
▁Esen	-9717
▁prens	-9718
▁Bildir	-9719
▁aksine	-9720
▁bedeli	-9721
▁oyunlar	-9722
▁dayanıklı	-9723
▁enflasyon	-9724
▁operasyonu	-9725
07	-9726
***	-9727
▁Selim	-9728
▁Alanya	-9729
▁toplantısında	-9730
luğa	-9731
▁All	-9732
▁SÜR	-9733
▁ayrıntılı	-9734
▁ettikleri	-9735
▁TC	-9736
▁Döv	-9737
▁caz	-9738
▁som	-9739
memiz	-9740
▁iman	-9741
▁Ajansı	-9742
▁saatte	-9743
mamıştır	-9744
▁Kişilik	-9745
▁görünce	-9746
▁ülkelerin	-9747
▁Geliştirme	-9748
Fi	-9749
LAMA	-9750
İzmir	-9751
▁Edin	-9752
duktan	-9753
▁Japon	-9754
▁merhaba	-9755
▁Çobançeşme	-9756
osun	-9757
malara	-9758
▁testi	-9759
▁pahalı	-9760
▁saniye	-9761
çısı	-9762
▁yah	-9763
▁öldü	-9764
▁esnek	-9765
▁kıyaf	-9766
▁partner	-9767
▁sermaye	-9768
▁çıkması	-9769
larımızla	-9770
▁Ki	-9771
▁Anal	-9772
▁evine	-9773
▁cennet	-9774
▁kaldığı	-9775
▁zamanlı	-9776
col	-9777
img	-9778
▁ısın	-9779
▁Yalçın	-9780
▁KR	-9781
▁dör	-9782
photo	-9783
ahisar	-9784
esince	-9785
ımızdan	-9786
▁canlandır	-9787
56	-9788
üpe	-9789
▁kemik	-9790
▁üyeler	-9791
▁Konseyi	-9792
ype	-9793
eşim	-9794
roup	-9795
▁kavg	-9796
tıktan	-9797
▁Yargı	-9798
nü	-9799
▁İsk	-9800
icdan	-9801
▁Ağrı	-9802
▁Şiir	-9803
▁geriye	-9804
▁çıkma	-9805
▁görevlendir	-9806
▁و	-9807
},"	-9808
veren	-9809
▁Whats	-9810
▁sektörü	-9811
▁şimdiden	-9812
▁sistemini	-9813
▁vatandaşların	-9814
ULU	-9815
▁One	-9816
▁Memur	-9817
▁rekor	-9818
▁Pe	-9819
▁sul	-9820
▁dediler	-9821
ubat	-9822
▁ima	-9823
▁Rahat	-9824
▁Pazarlama	-9825
▁Arkadaşlar	-9826
▁yapılabilir	-9827
ax	-9828
elin	-9829
abilme	-9830
▁Kapalı	-9831
▁oynamak	-9832
▁altındaki	-9833
zı	-9834
▁TOK	-9835
medim	-9836
▁kitl	-9837
▁Kılıf	-9838
▁iftar	-9839
▁olgun	-9840
▁geldik	-9841
▁İtalyan	-9842
▁hastaneye	-9843
js	-9844
ery	-9845
ware	-9846
▁koruyucu	-9847
▁Burak	-9848
▁Feth	-9849
eğinin	-9850
▁Boğaz	-9851
▁ölçek	-9852
▁nereye	-9853
▁Telekom	-9854
▁Mit	-9855
▁Mari	-9856
::	-9857
▁Malzeme	-9858
▁Kombi	-9859
▁yılına	-9860
▁Magazin	-9861
-30	-9862
play	-9863
▁bölümde	-9864
▁yılları	-9865
▁OY	-9866
▁kek	-9867
▁rüy	-9868
▁delik	-9869
▁riski	-9870
▁tanık	-9871
▁paketi	-9872
▁yardımı	-9873
Hz	-9874
▁Pay	-9875
▁yuv	-9876
resyon	-9877
çileri	-9878
▁direk	-9879
tığınız	-9880
▁ALANLAR	-9881
▁protesto	-9882
▁Dekorasyon	-9883
anma	-9884
▁Tic	-9885
▁Anlam	-9886
▁Banyo	-9887
▁kalma	-9888
▁Olarak	-9889
▁Yöntem	-9890
▁getirdiği	-9891
-13	-9892
oci	-9893
istal	-9894
tıklarını	-9895
▁festival	-9896
▁gelmiştir	-9897
pil	-9898
▁tac	-9899
▁Ölüm	-9900
▁sembol	-9901
▁gösteri	-9902
▁oranları	-9903
▁açıklamalarda	-9904
▁MİL	-9905
ülmüş	-9906
▁Posted	-9907
▁kiralık	-9908
▁koordin	-9909
ÜS	-9910
▁CM	-9911
▁10,	-9912
▁Tez	-9913
▁Show	-9914
▁Trafik	-9915
▁tamamı	-9916
▁gibidir	-9917
ebileceği	-9918
▁paylaşmak	-9919
ğne	-9920
▁Sert	-9921
▁verg	-9922
▁degil	-9923
▁onunla	-9924
mec	-9925
▁maz	-9926
▁çıkarmak	-9927
▁biliyoruz	-9928
02	-9929
my	-9930
Bey	-9931
otu	-9932
▁kl	-9933
Tarih	-9934
▁adıyla	-9935
▁piyasaya	-9936
ebileceğiniz	-9937
.[	-9938
▁BB	-9939
▁eline	-9940
▁filmin	-9941
▁birliği	-9942
▁Tekirdağ	-9943
08	-9944
▁Milyon	-9945
ilecektir	-9946
▁laf	-9947
▁büyüy	-9948
malarına	-9949
▁Oteller	-9950
▁bakar	-9951
çelik	-9952
▁Toprak	-9953
▁sıkınt	-9954
▁kendileri	-9955
▁kayıtlıdır	-9956
ansa	-9957
▁DUR	-9958
▁fazlas	-9959
▁Platformu	-9960
▁rahatsızlık	-9961
ırt	-9962
▁Kalı	-9963
▁çekin	-9964
▁Batman	-9965
İLİK	-9966
▁Çap	-9967
▁boru	-9968
üminyum	-9969
▁ihraç	-9970
likdüzü	-9971
OG	-9972
\"	-9973
▁66	-9974
eten	-9975
▁ırk	-9976
▁Tecr	-9977
▁imzal	-9978
▁İslâm	-9979
▁Turları	-9980
09	-9981
afak	-9982
aspor	-9983
▁kupon	-9984
▁Kanada	-9985
▁vitamin	-9986
▁Mc	-9987
▁NO	-9988
yazı	-9989
▁Göm	-9990
▁Suudi	-9991
▁Kampany	-9992
▁alanına	-9993
▁medyada	-9994
▁başlayın	-9995
ebir	-9996
▁sus	-9997
▁semt	-9998
▁perde	-9999
▁Intern	-10000
Ok	-10001
ipto	-10002
▁geçmek	-10003
▁yazılmış	-10004
▁olduğunun	-10005
ezz	-10006
amın	-10007
cusu	-10008
▁Vücut	-10009
▁eşlik	-10010
▁asgari	-10011
▁bizleri	-10012
▁Yardımcı	-10013
▁MS	-10014
...”	-10015
ream	-10016
▁abi	-10017
eryal	-10018
lerdeki	-10019
lıyoruz	-10020
▁kısaca	-10021
▁ülkeye	-10022
▁kişilere	-10023
lendiği	-10024
▁insana	-10025
▁yürütülen	-10026
İl	-10027
▁LG	-10028
▁2015,	-10029
▁Boyut	-10030
▁Dekor	-10031
▁markası	-10032
▁gösterdiği	-10033
▁gerçekleşti	-10034
▁101	-10035
▁taze	-10036
▁Premi	-10037
▁kimin	-10038
▁trend	-10039
▁katkıda	-10040
▁olmasın	-10041
ABD	-10042
▁Vek	-10043
▁zul	-10044
opter	-10045
▁ertel	-10046
▁konuları	-10047
▁İf	-10048
▁satır	-10049
▁HİZMET	-10050
▁bunlara	-10051
▁cesaret	-10052
▁oynanan	-10053
▁geçirmek	-10054
sus	-10055
▁Şart	-10056
▁hakem	-10057
▁yazın	-10058
▁manevi	-10059
▁zamanla	-10060
adıklarını	-10061
▁suretiyle	-10062
▁istatistik	-10063
▁2011,	-10064
eceğine	-10065
▁makale	-10066
▁kalabalık	-10067
Sev	-10068
▁Word	-10069
▁beklet	-10070
▁Koordin	-10071
▁organize	-10072
iriz	-10073
esign	-10074
▁Ofis	-10075
▁aylarında	-10076
▁Fel	-10077
▁özet	-10078
▁sürük	-10079
▁verin	-10080
▁Gökhan	-10081
▁new	-10082
ahattin	-10083
▁duygusal	-10084
pi	-10085
▁67	-10086
▁tüy	-10087
▁ihlal	-10088
▁kardeşim	-10089
▁Matematik	-10090
MAZ	-10091
▁(4)	-10092
▁Nil	-10093
▁koz	-10094
▁Şim	-10095
▁mekaniz	-10096
▁vermesi	-10097
ECE	-10098
▁up	-10099
▁Keç	-10100
▁nder	-10101
▁Parkı	-10102
▁Klasik	-10103
▁Diyanet	-10104
▁başarısız	-10105
eleme	-10106
▁DAİR	-10107
▁Usta	-10108
▁Saldır	-10109
▁sizden	-10110
▁Nevşehir	-10111
▁matematik	-10112
▁Nas	-10113
indan	-10114
makla	-10115
▁koşulları	-10116
xx	-10117
▁car	-10118
masya	-10119
▁Sevgil	-10120
▁özgü	-10121
elisiniz	-10122
▁Bilişim	-10123
▁Mün	-10124
▁Vad	-10125
.2010	-10126
▁akademik	-10127
.1	-10128
▁İzmit	-10129
▁ayakta	-10130
ady	-10131
▁Böyl	-10132
▁Mümkün	-10133
▁estetik	-10134
▁memleket	-10135
zir	-10136
▁Atak	-10137
▁Evden	-10138
liğiyle	-10139
▁yazarı	-10140
▁Flor	-10141
▁Akşam	-10142
▁ikisi	-10143
▁ismini	-10144
▁eşyalar	-10145
▁değişimi	-10146
▁gerekirse	-10147
▁ÜNİVERSİTESİ	-10148
▁farkında	-10149
▁geleceği	-10150
▁sağlanması	-10151
avüz	-10152
▁Eyl	-10153
▁mim	-10154
▁mol	-10155
▁çöp	-10156
atörü	-10157
orati	-10158
▁klas	-10159
Sor	-10160
İKA	-10161
aşehir	-10162
ilerle	-10163
▁kablo	-10164
ORT	-10165
▁AA	-10166
▁So	-10167
▁sec	-10168
▁Muhar	-10169
ney	-10170
rep	-10171
ıtma	-10172
▁Eğlen	-10173
başkanı	-10174
▁Hizmeti	-10175
KAD	-10176
Yap	-10177
▁pl	-10178
enme	-10179
▁dondur	-10180
▁tarafında	-10181
ýr	-10182
mil	-10183
şun	-10184
▁Forumu	-10185
INE	-10186
ors	-10187
▁81	-10188
unum	-10189
▁1,5	-10190
▁nik	-10191
▁olu	-10192
▁Ekip	-10193
▁uzaktan	-10194
EKT	-10195
INIZ	-10196
ilmi	-10197
uhan	-10198
▁verilmektedir	-10199
ins	-10200
rice	-10201
▁forma	-10202
▁olmazsa	-10203
▁Arabistan	-10204
▁dönemlerde	-10205
Ey	-10206
SM	-10207
▁ca	-10208
▁SEV	-10209
▁çaba	-10210
▁krizi	-10211
▁kullanıc	-10212
▁başvurusu	-10213
▁getirildi	-10214
kir	-10215
tle	-10216
▁pop	-10217
▁your	-10218
saspor	-10219
▁Fırat	-10220
▁tanıy	-10221
▁üretici	-10222
▁MAN	-10223
▁slog	-10224
▁ittifak	-10225
▁kalacak	-10226
▁Kitapları	-10227
▁kendisinin	-10228
box	-10229
erg	-10230
İDE	-10231
ated	-10232
▁War	-10233
▁guzel	-10234
laşması	-10235
ülasyon	-10236
AMAN	-10237
edisi	-10238
vivor	-10239
handler	-10240
▁Arayan	-10241
▁rezerv	-10242
▁tarafı	-10243
▁Büyükel	-10244
▁öğrenme	-10245
▁koleksiyon	-10246
ound	-10247
▁kral	-10248
▁direkt	-10249
▁almıştır	-10250
Kal	-10251
▁Comp	-10252
▁Stan	-10253
miyorum	-10254
▁anlaşma	-10255
bab	-10256
ucusu	-10257
▁Makyaj	-10258
▁kullanın	-10259
▁kullanıcılar	-10260
▁AÇIK	-10261
▁fant	-10262
▁kağı	-10263
▁Filmi	-10264
▁Suites	-10265
▁öp	-10266
▁12,	-10267
▁evin	-10268
▁değerleri	-10269
▁koronavirüs	-10270
▁mp	-10271
aker	-10272
▁Div	-10273
▁sıcaklık	-10274
▁getiriyor	-10275
içre	-10276
▁035	-10277
.2011	-10278
▁oraya	-10279
▁ağrısı	-10280
▁dolarlık	-10281
no	-10282
▁fin	-10283
▁doğur	-10284
▁durak	-10285
▁öv	-10286
▁çet	-10287
▁odaklı	-10288
▁türkçe	-10289
▁istenen	-10290
▁vitamini	-10291
fk	-10292
▁Je	-10293
▁müj	-10294
▁örgü	-10295
▁katli	-10296
itasyon	-10297
▁dinamik	-10298
▁merkezine	-10299
▁KO	-10300
umuza	-10301
amanız	-10302
▁geliştirmek	-10303
isti	-10304
▁müh	-10305
▁dert	-10306
▁okula	-10307
▁değişen	-10308
▁nereden	-10309
▁anlatıyor	-10310
sever	-10311
lamada	-10312
▁kızlar	-10313
▁olmakla	-10314
tage	-10315
▁Lav	-10316
▁Müf	-10317
▁sof	-10318
▁Efend	-10319
ystem	-10320
▁House	-10321
▁Holding	-10322
▁2002	-10323
▁Azer	-10324
▁arzu	-10325
▁yetk	-10326
▁açmak	-10327
▁keşfed	-10328
▁Temizlik	-10329
▁oyuncular	-10330
▁Technorati	-10331
51	-10332
ranı	-10333
▁Eki	-10334
▁Senin	-10335
▁yönlü	-10336
▁KULLAN	-10337
▁mesela	-10338
▁Download	-10339
▁haberine	-10340
▁geliştirme	-10341
raft	-10342
uydu	-10343
▁GAZ	-10344
▁olanı	-10345
▁Müşter	-10346
▁Yapımı	-10347
▁istikrar	-10348
▁personeli	-10349
▁]	-10350
▁ALI	-10351
▁1080	-10352
▁doku	-10353
▁çatı	-10354
▁ölen	-10355
▁semin	-10356
▁Cat	-10357
▁ard	-10358
▁hır	-10359
▁ocak	-10360
▁keşfet	-10361
▁denilen	-10362
▁görevini	-10363
▁gönderildi	-10364
ACI	-10365
atta	-10366
usundaki	-10367
▁edenler	-10368
▁eğlence	-10369
▁yükseldi	-10370
Em	-10371
Gör	-10372
▁TAN	-10373
▁TRT	-10374
▁utan	-10375
▁numara	-10376
▁Üyelik	-10377
edeniyet	-10378
▁vurgulayan	-10379
▁ur	-10380
▁‘’	-10381
▁disk	-10382
▁yapay	-10383
▁dediği	-10384
▁geldiğ	-10385
▁lezzet	-10386
▁gençler	-10387
▁İnsanlar	-10388
▁Apart	-10389
▁arttı	-10390
▁Başsav	-10391
▁talebi	-10392
▁başladım	-10393
▁Direktörü	-10394
EDİ	-10395
TEK	-10396
ralya	-10397
▁Bilin	-10398
▁Pınar	-10399
▁Konuyu	-10400
▁Nerede	-10401
▁Listesi	-10402
▁Ekonomik	-10403
▁sizlerin	-10404
boy	-10405
▁attığı	-10406
lığından	-10407
▁bildirim	-10408
acın	-10409
▁tör	-10410
.....	-10411
▁null	-10412
▁Gelen	-10413
▁Yoksa	-10414
▁olurdu	-10415
▁kaynakları	-10416
Yanıt	-10417
acaat	-10418
▁Yeri	-10419
atay	-10420
▁rep	-10421
▁sad	-10422
ement	-10423
▁Kadar	-10424
▁tutum	-10425
▁Casino	-10426
▁çözümü	-10427
▁Sonrası	-10428
▁zamandır	-10429
tv	-10430
ifi	-10431
▁2)	-10432
▁sök	-10433
ayn	-10434
▁qu	-10435
doğu	-10436
iirt	-10437
orth	-10438
▁buyur	-10439
▁Resimleri	-10440
▁det	-10441
▁kül	-10442
▁ÇOK	-10443
▁ortamı	-10444
▁Örgütü	-10445
▁elinden	-10446
ınd	-10447
▁katk	-10448
▁Bağım	-10449
olojisi	-10450
▁Taşıma	-10451
▁yazdığı	-10452
▁büyüklüğ	-10453
▁bilgilerini	-10454
▁ÇIK	-10455
▁Ortadoğu	-10456
▁deneyimi	-10457
Kat	-10458
amızı	-10459
▁prim	-10460
ımları	-10461
▁gelişen	-10462
▁olacağız	-10463
▁operatörüne	-10464
ANA	-10465
▁İnan	-10466
orit	-10467
▁deg	-10468
▁çel	-10469
▁çapında	-10470
▁tazminat	-10471
▁Gerçekten	-10472
58	-10473
ance	-10474
▁Sün	-10475
▁payı	-10476
ikatür	-10477
▁devir	-10478
▁hizmete	-10479
stat	-10480
faiye	-10481
▁Camii	-10482
▁Kazak	-10483
▁eşsiz	-10484
▁kabil	-10485
▁olmas	-10486
▁çıkıp	-10487
▁düşünür	-10488
▁sistemine	-10489
ülüyor	-10490
▁olmal	-10491
▁birinc	-10492
▁taşıyor	-10493
▁uygulamaya	-10494
tüs	-10495
adam	-10496
müyor	-10497
▁Meydanı	-10498
▁dönemin	-10499
▁görevli	-10500
▁önlemek	-10501
▁problemi	-10502
▁projeleri	-10503
YS	-10504
liğinden	-10505
dıklarını	-10506
▁filmleri	-10507
▁haftalık	-10508
▁yakınında	-10509
▁86	-10510
▁Mali	-10511
▁Yunus	-10512
▁kılın	-10513
ega	-10514
wood	-10515
lıktan	-10516
▁Çetin	-10517
▁kaynaklı	-10518
▁9,	-10519
olik	-10520
▁NAS	-10521
▁obj	-10522
▁plaj	-10523
▁Mevcut	-10524
▁ikamet	-10525
▁Transfer	-10526
fo	-10527
ydi	-10528
▁BAS	-10529
▁lise	-10530
▁karşısına	-10531
▁DC	-10532
abey	-10533
türü	-10534
▁180	-10535
▁Nor	-10536
▁Şük	-10537
▁tren	-10538
▁şair	-10539
▁tohum	-10540
▁yazmış	-10541
leyebilirsiniz	-10542
▁göv	-10543
▁Bost	-10544
▁biber	-10545
▁Devamını	-10546
/06	-10547
12)	-10548
▁BELED	-10549
▁Gelir	-10550
▁Çorum	-10551
otograf	-10552
▁gözler	-10553
▁Üretim	-10554
▁HER	-10555
▁mel	-10556
▁Tablo	-10557
▁şehri	-10558
mediğini	-10559
▁Kuruluş	-10560
▁Herhangi	-10561
▁ağr	-10562
▁cik	-10563
▁mide	-10564
ümüzün	-10565
▁2014,	-10566
▁bizde	-10567
▁ısrar	-10568
rü	-10569
▁Ayn	-10570
▁imam	-10571
▁veril	-10572
▁Turkcell	-10573
▁lezzetli	-10574
▁getirilen	-10575
au	-10576
ush	-10577
▁bizden	-10578
Oy	-10579
▁77	-10580
hine	-10581
▁Büy	-10582
celer	-10583
▁tutun	-10584
ınızdan	-10585
▁almayı	-10586
▁kısmını	-10587
▁pazarlama	-10588
YE	-10589
ahah	-10590
▁hic	-10591
▁Dört	-10592
▁saha	-10593
▁Bulut	-10594
▁abone	-10595
ayolları	-10596
▁hepsini	-10597
▁yeterince	-10598
SİZ	-10599
Tak	-10600
tüm	-10601
▁ag	-10602
▁atın	-10603
▁uzay	-10604
▁Tokat	-10605
-25	-10606
▁skor	-10607
▁kutusu	-10608
lüt	-10609
▁Söy	-10610
ozgat	-10611
▁sekiz	-10612
▁verileri	-10613
▁ülkemizin	-10614
CO	-10615
▁2.4	-10616
linde	-10617
▁Parç	-10618
lament	-10619
▁porno	-10620
▁bardak	-10621
nel	-10622
▁İM	-10623
onda	-10624
cript	-10625
▁Mert	-10626
▁hang	-10627
▁Seksi	-10628
▁Yedek	-10629
▁açıkça	-10630
▁niteliğ	-10631
▁olmanız	-10632
▁zik	-10633
kenti	-10634
▁hayatına	-10635
▁karşılığı	-10636
▁gönderilen	-10637
fan	-10638
ELERİ	-10639
▁artı	-10640
▁Dahil	-10641
çekmece	-10642
▁çıkardı	-10643
▁edecektir	-10644
57	-10645
vat	-10646
▁Oyuncak	-10647
▁anlaşıl	-10648
osa	-10649
▁şaş	-10650
▁Kayn	-10651
▁satan	-10652
▁Birlik	-10653
▁motosiklet	-10654
▁yaşama	-10655
▁olurken	-10656
▁kolaylıkla	-10657
tük	-10658
▁ili	-10659
▁tüp	-10660
otoru	-10661
▁Kuran	-10662
▁Yazdır	-10663
▁turnuv	-10664
içi	-10665
mız	-10666
alılar	-10667
▁Dantel	-10668
▁kombin	-10669
şen	-10670
▁TAŞ	-10671
▁Berk	-10672
▁düzenlenecek	-10673
ck	-10674
erin	-10675
▁yağış	-10676
▁Dünyası	-10677
▁Giresun	-10678
▁çeşitleri	-10679
asp	-10680
bağ	-10681
hid	-10682
▁78	-10683
bümü	-10684
ndaki	-10685
▁davası	-10686
▁seviyede	-10687
▁resimleri	-10688
▁fı	-10689
INIF	-10690
▁Lam	-10691
▁Tom	-10692
ijyen	-10693
imiçi	-10694
lemiş	-10695
luyor	-10696
▁Adım	-10697
▁mecbur	-10698
▁açıklan	-10699
▁düşündüğ	-10700
▁istediğini	-10701
▁Yakınlardaki	-10702
hiş	-10703
▁YÜK	-10704
▁uyk	-10705
▁Power	-10706
▁dinle	-10707
▁sayısını	-10708
MEN	-10709
▁63	-10710
iğin	-10711
▁Rak	-10712
saray	-10713
▁Kürd	-10714
▁formu	-10715
▁Şekil	-10716
▁Koltuk	-10717
▁diplom	-10718
▁oynayan	-10719
▁verilmiştir	-10720
Gİ	-10721
▁PS	-10722
emedim	-10723
▁BÜYÜK	-10724
▁SANAY	-10725
▁işini	-10726
▁Şampiyonası	-10727
olo	-10728
avuzu	-10729
▁Alanı	-10730
ılaştır	-10731
▁girmek	-10732
▁rüzgar	-10733
▁Iz	-10734
ANLI	-10735
avor	-10736
Deniz	-10737
▁doğa	-10738
▁World	-10739
▁satım	-10740
▁Avukat	-10741
▁manzar	-10742
▁uzmanı	-10743
▁Kariyer	-10744
▁yapacağız	-10745
▁bulunduğunu	-10746
▁Alp	-10747
▁Club	-10748
▁beton	-10749
▁Turkey	-10750
▁sendik	-10751
▁yaşandı	-10752
▁örnekleri	-10753
:))	-10754
arl	-10755
▁Banka	-10756
▁zihin	-10757
▁tamamladı	-10758
▁Öğ	-10759
▁had	-10760
▁Gezi	-10761
▁Masa	-10762
umuzda	-10763
▁Tablet	-10764
▁kapsamda	-10765
▁ilişkileri	-10766
▁CD	-10767
▁kulüb	-10768
▁sakın	-10769
Sam	-10770
▁Hur	-10771
▁Doğa	-10772
▁stil	-10773
▁özür	-10774
▁atmos	-10775
abildiğ	-10776
▁Garanti	-10777
▁Hükümet	-10778
▁durumlar	-10779
▁62	-10780
▁Yerli	-10781
▁Center	-10782
▁Kurban	-10783
▁Öğrenc	-10784
▁indirimi	-10785
lana	-10786
▁nın	-10787
▁yansı	-10788
mamalıdır	-10789
▁sahipleri	-10790
andum	-10791
salar	-10792
▁Kilis	-10793
▁Sanal	-10794
▁kaydı	-10795
▁radyo	-10796
▁Gümrük	-10797
▁Tavsiye	-10798
▁Aşağıdaki	-10799
gim	-10800
agen	-10801
▁Kep	-10802
▁KKTC	-10803
▁ceph	-10804
▁yang	-10805
▁Karabük	-10806
▁Kurumsal	-10807
▁kaydeden	-10808
▁fotoğrafları	-10809
Back	-10810
ıştı	-10811
▁sep	-10812
dığına	-10813
▁tutuklu	-10814
▁olmasının	-10815
▁parçaları	-10816
▁Lib	-10817
▁MES	-10818
▁Ölç	-10819
iğeri	-10820
▁Çocuğ	-10821
▁bizzat	-10822
▁ekstra	-10823
ег	-10824
▁ld	-10825
▁Öy	-10826
anik	-10827
▁Nok	-10828
Hayır	-10829
▁usta	-10830
▁evrak	-10831
▁pamuk	-10832
▁senar	-10833
ilirken	-10834
▁Yazılım	-10835
▁Güzellik	-10836
▁gereklidir	-10837
▁Albay	-10838
▁kiral	-10839
▁Kastam	-10840
▁Onu	-10841
▁cezaev	-10842
▁altyapı	-10843
▁paralel	-10844
▁ortasında	-10845
▁görülmektedir	-10846
.-	-10847
ies	-10848
IRIM	-10849
▁Ayak	-10850
▁Vakıf	-10851
lenerek	-10852
▁Teslim	-10853
▁konulu	-10854
▁yazısı	-10855
▁olayları	-10856
▁neticesinde	-10857
eet	-10858
yet	-10859
igür	-10860
rade	-10861
▁Huawei	-10862
▁karşılıklı	-10863
kah	-10864
ture	-10865
▁III	-10866
▁Ste	-10867
▁İpek	-10868
▁burun	-10869
▁halkının	-10870
04	-10871
lib	-10872
MASI	-10873
oför	-10874
ukar	-10875
ğday	-10876
inter	-10877
tuğrul	-10878
▁Geçir	-10879
abilirim	-10880
▁çıkarak	-10881
ATO	-10882
hem	-10883
işe	-10884
koz	-10885
ute	-10886
▁Kızlar	-10887
▁salonu	-10888
▁çeyrek	-10889
▁aldığını	-10890
yem	-10891
▁2.5	-10892
▁sığ	-10893
acaklar	-10894
▁["	-10895
▁aşık	-10896
oç	-10897
oley	-10898
▁2001	-10899
▁Yolu	-10900
▁adamın	-10901
▁açılır	-10902
▁Sözleri	-10903
▁seçilen	-10904
ilerinden	-10905
▁oyuncusu	-10906
▁aşamasında	-10907
▁Hik	-10908
osman	-10909
▁dostu	-10910
▁baştan	-10911
▁söyler	-10912
▁Sağlıklı	-10913
▁çözümler	-10914
ettür	-10915
indir	-10916
lülük	-10917
▁mant	-10918
▁Şeyh	-10919
▁arayış	-10920
▁editör	-10921
▁muhabbet	-10922
▁yürürlüğe	-10923
madığ	-10924
▁izni	-10925
ecilik	-10926
▁kitapları	-10927
ope	-10928
ards	-10929
eğim	-10930
düncü	-10931
▁sürü	-10932
▁girer	-10933
▁Kapsam	-10934
▁göreve	-10935
▁pantolon	-10936
VEN	-10937
▁Ob	-10938
▁Lüks	-10939
▁yüzü	-10940
▁Gülen	-10941
▁çıkmak	-10942
▁ihtiyacınız	-10943
▁İşletme	-10944
IF	-10945
▁Sub	-10946
▁Refer	-10947
▁daima	-10948
▁nefret	-10949
▁sizinle	-10950
▁yakının	-10951
▁TES	-10952
▁Zek	-10953
▁ded	-10954
▁Belg	-10955
▁GÜNCEL	-10956
▁egemen	-10957
memiştir	-10958
▁hastane	-10959
▁başarılar	-10960
▁ülkelerde	-10961
▁belirlendi	-10962
▁1)	-10963
▁SS	-10964
ahhüt	-10965
▁tepk	-10966
▁Beğen	-10967
▁boyun	-10968
▁dilim	-10969
▁konul	-10970
▁mıdır	-10971
▁Berlin	-10972
ediğimiz	-10973
▁maddeler	-10974
▁paylaştı	-10975
▁sistemin	-10976
SIZ	-10977
abo	-10978
▁KAM	-10979
▁Prot	-10980
landırma	-10981
▁değişiklikler	-10982
ETİ	-10983
EDEN	-10984
▁Cemal	-10985
▁yelik	-10986
▁yoruma	-10987
▁sunuyoruz	-10988
▁pir	-10989
▁suyun	-10990
▁99	-10991
▁Zeynep	-10992
tl	-10993
Yıl	-10994
▁Os	-10995
İLİR	-10996
luğunu	-10997
▁Çukur	-10998
▁Madrid	-10999
▁talimat	-11000
▁yurtdış	-11001
▁Â	-11002
sch	-11003
▁23.	-11004
luğun	-11005
▁yolunu	-11006
▁Başlangıç	-11007
▁Kategoriler	-11008
del	-11009
özel	-11010
▁İLK	-11011
▁emir	-11012
▁ediyorlar	-11013
dızı	-11014
▁Buluş	-11015
▁İhtiy	-11016
▁sözlerine	-11017
▁fiyatlarla	-11018
ETLER	-11019
▁Göre	-11020
▁MÜDÜR	-11021
malıyız	-11022
▁sunucu	-11023
▁benimle	-11024
▁Nelerdir	-11025
▁verilmiş	-11026
▁sınırları	-11027
▁yayımlanan	-11028
Un	-11029
ovid	-11030
▁kayd	-11031
▁Engin	-11032
▁forex	-11033
tikleri	-11034
▁Tamiri	-11035
▁hormon	-11036
▁önemlisi	-11037
▁dışındaki	-11038
▁karşılamak	-11039
▁Restoranları	-11040
IV	-11041
▁MET	-11042
▁Ayşe	-11043
▁seyr	-11044
▁tavuk	-11045
▁verdik	-11046
▁maksimum	-11047
▁seviyesi	-11048
▁vermeden	-11049
▁76	-11050
▁kedi	-11051
▁getirir	-11052
▁Çankaya	-11053
▁Kalkınma	-11054
▁başından	-11055
Bar	-11056
ends	-11057
▁Alımı	-11058
▁dükkan	-11059
▁gündüz	-11060
▁Kameralı	-11061
EX	-11062
İMİ	-11063
▁MOD	-11064
▁Erol	-11065
▁irad	-11066
▁sabır	-11067
▁ülkemiz	-11068
▁gerekçesiyle	-11069
▁teor	-11070
▁Selam	-11071
Mu	-11072
run	-11073
brek	-11074
▁but	-11075
▁çeş	-11076
▁Cami	-11077
▁nakit	-11078
▁siteye	-11079
▁gönüllü	-11080
▁Suriyeli	-11081
GI	-11082
▁AVM	-11083
▁etsin	-11084
▁oradan	-11085
▁Tanıtım	-11086
▁anlamında	-11087
▁Sözleşmesi	-11088
kop	-11089
odu	-11090
▁(%	-11091
▁73	-11092
▁rul	-11093
▁allah	-11094
▁Turgut	-11095
▁haksız	-11096
▁izleme	-11097
▁odalar	-11098
▁projenin	-11099
▁çevresinde	-11100
Doğ	-11101
LAH	-11102
▁Üz	-11103
▁sayfada	-11104
▁dolandır	-11105
▁kendinize	-11106
layabilirsiniz	-11107
URT	-11108
imet	-11109
lant	-11110
izlar	-11111
▁vize	-11112
lilerin	-11113
▁laborat	-11114
▁peygamber	-11115
▁bağlantısı	-11116
▁kampanyası	-11117
▁arkadaşları	-11118
HK	-11119
SU	-11120
▁CEV	-11121
▁Şarj	-11122
▁yoluna	-11123
▁İsviçre	-11124
▁demokras	-11125
▁etrafında	-11126
DAK	-11127
çay	-11128
▁Stil	-11129
▁Tüket	-11130
▁zorlu	-11131
▁Serdar	-11132
▁emanet	-11133
▁gergin	-11134
dr	-11135
ida	-11136
▁Evi	-11137
▁GEÇ	-11138
▁pap	-11139
▁arıza	-11140
▁yıkama	-11141
▁zamana	-11142
▁anlayışı	-11143
▁tartışma	-11144
▁Görüntüleme	-11145
Ex	-11146
lm	-11147
sy	-11148
Sil	-11149
nal	-11150
▁Plaj	-11151
▁evli	-11152
▁Komut	-11153
▁kombi	-11154
▁piece	-11155
▁devamı	-11156
▁hedefi	-11157
iba	-11158
kut	-11159
php	-11160
irmi	-11161
▁takı	-11162
▁fiyata	-11163
▁61	-11164
▁cild	-11165
▁karın	-11166
anıp	-11167
perm	-11168
▁alam	-11169
▁Avustralya	-11170
▁pu	-11171
-2008	-11172
▁hemde	-11173
▁şiddetli	-11174
▁Güvenliği	-11175
▁verebilir	-11176
▁teknolojisi	-11177
▁koku	-11178
inizle	-11179
▁devre	-11180
▁yıldızlı	-11181
▁Görüntülü	-11182
▁platformu	-11183
▁hastalıkları	-11184
fez	-11185
uyucu	-11186
İÇ	-11187
▁HAL	-11188
▁Takv	-11189
▁Eylem	-11190
▁Kartı	-11191
▁düzel	-11192
▁girip	-11193
ıyorsunuz	-11194
▁Kiralama	-11195
▁Bilimleri	-11196
▁pe	-11197
LİĞİ	-11198
▁göze	-11199
ulları	-11200
▁koyun	-11201
▁bölgenin	-11202
!"	-11203
DB	-11204
uki	-11205
▁Spr	-11206
EKONOM	-11207
▁Fatma	-11208
▁budur	-11209
▁cümle	-11210
▁Devleti	-11211
▁alınmış	-11212
▁değişken	-11213
▁çalıştığı	-11214
▁kullanıcıların	-11215
leks	-11216
▁Bre	-11217
▁Tol	-11218
▁akım	-11219
alanan	-11220
▁cihazı	-11221
▁dünyayı	-11222
karahisar	-11223
▁Istanbul	-11224
▁karşılığında	-11225
][	-11226
ÄŸ	-11227
âl	-11228
▁stres	-11229
▁Bulgar	-11230
▁Kimdir	-11231
▁Teşkil	-11232
▁İslami	-11233
▁aydınlat	-11234
izin	-11235
▁Girişim	-11236
▁dağıtım	-11237
▁bozukluk	-11238
▁1-2	-11239
▁KOM	-11240
▁tef	-11241
izmir	-11242
▁batı	-11243
▁Sahibi	-11244
▁tahsil	-11245
▁başlamak	-11246
▁bunlardan	-11247
▁görebilirsiniz	-11248
şk	-11249
DEK	-11250
ras	-11251
▁etmem	-11252
tığında	-11253
▁market	-11254
▁planda	-11255
▁girecek	-11256
▁Vodafone	-11257
▁Wi	-11258
bolu	-11259
▁700	-11260
▁İsa	-11261
▁derg	-11262
▁ikna	-11263
▁Olmak	-11264
▁Levent	-11265
▁Sertifik	-11266
▁belirgin	-11267
▁detayları	-11268
▁sektörünün	-11269
SE	-11270
cen	-11271
▁Üs	-11272
▁cad	-11273
▁kın	-11274
▁Çal	-11275
▁eseri	-11276
▁midir	-11277
duğunda	-11278
▁Yeniden	-11279
▁firmanın	-11280
▁veriyoruz	-11281
don	-11282
atçı	-11283
oglu	-11284
▁duş	-11285
▁indirimli	-11286
▁kullanmaya	-11287
▁yardımıyla	-11288
▁çak	-11289
ılgın	-11290
▁Dili	-11291
▁Milliyet	-11292
▁sağladığı	-11293
▁olağanüstü	-11294
==	-11295
uval	-11296
▁YEN	-11297
amayı	-11298
▁hızı	-11299
▁Salon	-11300
▁gelmez	-11301
emeyecek	-11302
▁Üzerine	-11303
▁Başakşehir	-11304
▁AF	-11305
üzün	-11306
uluğu	-11307
▁Bırak	-11308
▁vicdan	-11309
▁bot	-11310
▁emr	-11311
▁resmen	-11312
▁ettiğiniz	-11313
▁stratejik	-11314
▁Ý	-11315
Kap	-11316
ülük	-11317
▁satıcı	-11318
▁almadan	-11319
▁Ez	-11320
▁2-3	-11321
▁Giy	-11322
▁Kudüs	-11323
▁idare	-11324
▁Elbette	-11325
TAR	-11326
TEPE	-11327
âhil	-11328
▁BİN	-11329
▁haş	-11330
Düzen	-11331
▁7/24	-11332
impiyat	-11333
▁Balkan	-11334
▁samimi	-11335
▁Performan	-11336
▁Teşekkürler	-11337
EFA	-11338
MİR	-11339
▁Ten	-11340
beyaz	-11341
▁Açma	-11342
ografi	-11343
▁köken	-11344
▁haberdar	-11345
ico	-11346
▁EY	-11347
▁Stu	-11348
▁Yem	-11349
▁imar	-11350
▁ötürü	-11351
▁müsabak	-11352
▁inanıyorum	-11353
Kİ	-11354
Har	-11355
▁UZ	-11356
Link	-11357
ager	-11358
-2018	-11359
▁topar	-11360
▁Bilimler	-11361
▁cinsiyet	-11362
▁vurguladı	-11363
act	-11364
▁iv	-11365
▁Hit	-11366
küdar	-11367
▁erdi	-11368
▁İsveç	-11369
▁kazanma	-11370
▁tıklayarak	-11371
▁MAK	-11372
▁Veri	-11373
▁imal	-11374
epyeni	-11375
▁gebelik	-11376
▁şiirleri	-11377
bl	-11378
ng	-11379
ûl	-11380
ilar	-11381
▁But	-11382
▁Tas	-11383
emedi	-11384
yright	-11385
▁Yakası	-11386
▁noktaya	-11387
▁sitenin	-11388
▁sıradan	-11389
▁hareketi	-11390
▁Ile	-11391
▁razı	-11392
▁turk	-11393
▁Fizik	-11394
▁ibadet	-11395
▁İspanyol	-11396
GAZ	-11397
▁filtr	-11398
▁mahal	-11399
▁sebze	-11400
▁Kongresi	-11401
▁sıklıkla	-11402
▁antrenman	-11403
mp	-11404
iğde	-11405
▁Kök	-11406
ating	-11407
▁MAHALL	-11408
▁antika	-11409
▁tatmin	-11410
▁istedik	-11411
▁basketbol	-11412
▁Lit	-11413
▁şahit	-11414
▁birlikt	-11415
▁konuyla	-11416
▁Kastamonu	-11417
TÜRK	-11418
▁oto	-11419
▁reç	-11420
▁Sana	-11421
ashington	-11422
▁hızlandır	-11423
▁itibarıyla	-11424
ürt	-11425
▁HAKK	-11426
▁metr	-11427
esidir	-11428
İYASET	-11429
enderes	-11430
▁atılan	-11431
▁müslüm	-11432
▁kredisi	-11433
▁içerisine	-11434
▁Üm	-11435
▁pomp	-11436
▁Bahçe	-11437
▁Maliye	-11438
▁organiz	-11439
▁bilgilerin	-11440
▁gerçekleştirdi	-11441
lini	-11442
eklik	-11443
▁UYGUL	-11444
▁şeyden	-11445
alarıyla	-11446
▁uzaklaş	-11447
▁İnşallah	-11448
umun	-11449
▁Nes	-11450
Dünya	-11451
eveyn	-11452
ahtarı	-11453
▁performansı	-11454
▁Du	-11455
▁dub	-11456
▁1999	-11457
▁işten	-11458
▁gazete	-11459
▁gündür	-11460
▁tadını	-11461
▁izleyen	-11462
dog	-11463
hak	-11464
akin	-11465
iliv	-11466
▁Sky	-11467
▁oğl	-11468
halde	-11469
ılmaya	-11470
▁konse	-11471
▁puanı	-11472
▁deneme	-11473
▁tecrübeli	-11474
▁yapılarak	-11475
Hal	-11476
▁sup	-11477
▁adli	-11478
▁Burcu	-11479
▁Nihat	-11480
▁Ödülü	-11481
▁tüketic	-11482
▁Fragmanı	-11483
lov	-11484
ekiz	-11485
▁Elif	-11486
▁Etti	-11487
▁Bursaspor	-11488
Par	-11489
dınız	-11490
enleri	-11491
▁Antik	-11492
▁Final	-11493
▁sahil	-11494
▁sömür	-11495
▁cemaat	-11496
larımızda	-11497
▁milletin	-11498
▁sitemizde	-11499
▁Hastalıkları	-11500
App	-11501
ehr	-11502
▁FOR	-11503
▁Ton	-11504
▁flaş	-11505
amızın	-11506
▁Çatal	-11507
▁temsilcileri	-11508
ws	-11509
omo	-11510
oza	-11511
acan	-11512
▁that	-11513
▁uzan	-11514
▁bağır	-11515
▁limon	-11516
▁sizde	-11517
▁hepimiz	-11518
▁materyal	-11519
▁yapmaktadır	-11520
Res	-11521
▁best	-11522
▁tırnak	-11523
▁Sigorta	-11524
▁gerçeği	-11525
▁faaliyetleri	-11526
HAL	-11527
aciv	-11528
▁hizmetlerini	-11529
▁ğ	-11530
late	-11531
ücel	-11532
▁bomba	-11533
▁Bingöl	-11534
▁işleme	-11535
▁bitkiler	-11536
▁maliyeti	-11537
▁hareketli	-11538
59	-11539
oli	-11540
▁Sk	-11541
Turk	-11542
idin	-11543
▁Rey	-11544
▁Karşı	-11545
▁bütçe	-11546
▁bilmek	-11547
▁felsef	-11548
▁aldığım	-11549
▁istediğim	-11550
▁olabiliyor	-11551
▁uzaklaştır	-11552
Yer	-11553
rul	-11554
▁my	-11555
edat	-11556
.2009	-11557
▁Kırık	-11558
▁yaban	-11559
rrrrrrrr	-11560
▁Silikon	-11561
▁ilaçlar	-11562
▁beraberinde	-11563
olos	-11564
oskova	-11565
uyordu	-11566
▁birimi	-11567
▁geçerek	-11568
ja	-11569
aciğer	-11570
▁Numar	-11571
▁ayrım	-11572
▁dönüm	-11573
▁ihmal	-11574
▁yürek	-11575
▁Bakımı	-11576
▁Serisi	-11577
▁defter	-11578
▁göçmen	-11579
ýä	-11580
▁Beden	-11581
▁cenaz	-11582
▁Ticari	-11583
▁Siyaset	-11584
▁dilerim	-11585
▁intihar	-11586
▁örneğin	-11587
▁depolama	-11588
▁öğrencisi	-11589
UNU	-11590
URE	-11591
maktır	-11592
▁Arşiv	-11593
▁imalat	-11594
▁sahipliği	-11595
DIN	-11596
ooth	-11597
▁Out	-11598
▁Toz	-11599
ispor	-11600
iyenin	-11601
▁Adayı	-11602
▁Köpek	-11603
▁Vatan	-11604
▁isteği	-11605
▁Oluştur	-11606
▁gösterilen	-11607
Ter	-11608
▁Ku	-11609
▁Sap	-11610
▁akş	-11611
acılığı	-11612
▁denize	-11613
▁kendime	-11614
▁yapıştır	-11615
▁Karşıyaka	-11616
▁Oc	-11617
▁Si	-11618
▁keç	-11619
sizin	-11620
▁artıyor	-11621
▁oynadığı	-11622
wa	-11623
atin	-11624
irkin	-11625
▁klav	-11626
lenmiştir	-11627
▁kaldırıldı	-11628
▁Tuğ	-11629
lerimi	-11630
▁kadını	-11631
▁liraya	-11632
▁devleti	-11633
sage	-11634
▁was	-11635
▁çiğ	-11636
eview	-11637
▁öykü	-11638
▁hayli	-11639
▁siteler	-11640
▁kullanır	-11641
▁Azerbaycan	-11642
▁teknolojik	-11643
şş	-11644
amda	-11645
▁Bizi	-11646
▁bors	-11647
▁Düşük	-11648
▁minik	-11649
▁yıldan	-11650
▁onlarca	-11651
▁Bunlardan	-11652
▁yapıyorum	-11653
▁temsilcisi	-11654
TK	-11655
▁Day	-11656
▁iOS	-11657
esiniz	-11658
▁hücre	-11659
▁varlığı	-11660
▁LinkBack	-11661
▁yerinden	-11662
asy	-11663
ath	-11664
▁Eh	-11665
▁KIR	-11666
▁Rot	-11667
▁mülk	-11668
▁Kural	-11669
▁Gençler	-11670
▁santral	-11671
▁Restaurant	-11672
ehri	-11673
▁SAL	-11674
▁gözet	-11675
▁tabak	-11676
habalar	-11677
▁SANAYİ	-11678
▁ibaret	-11679
▁TİCARET	-11680
▁detaylar	-11681
▁malzemeler	-11682
.3	-11683
▁74	-11684
▁88	-11685
▁go	-11686
ahan	-11687
âyet	-11688
▁Esn	-11689
▁HAR	-11690
▁HAV	-11691
likten	-11692
raniye	-11693
▁Ahşap	-11694
▁sisteme	-11695
▁uyandır	-11696
▁uyarınca	-11697
▁edilecektir	-11698
▁işlemlerini	-11699
▁viz	-11700
▁hain	-11701
▁oyuna	-11702
acivert	-11703
▁mezunu	-11704
▁olayın	-11705
▁pişman	-11706
▁sokağa	-11707
▁karmaşık	-11708
/01	-11709
▁gev	-11710
▁Kahve	-11711
▁Başarı	-11712
▁mesafe	-11713
▁ederler	-11714
ılacaktır	-11715
▁gelebilir	-11716
▁hastanede	-11717
MI	-11718
RAN	-11719
OBİL	-11720
▁sürdü	-11721
▁kutsal	-11722
ext	-11723
▁Ust	-11724
▁Fayd	-11725
▁Kars	-11726
▁boşluk	-11727
▁dürüst	-11728
▁ettiğimiz	-11729
▁görülüyor	-11730
▁çalışanları	-11731
▁Fuarı	-11732
▁Zafer	-11733
▁balkon	-11734
ladığımız	-11735
▁korunması	-11736
sm	-11737
hop	-11738
tit	-11739
▁Spa	-11740
▁gittim	-11741
▁habere	-11742
▁mağlup	-11743
▁Maltepe	-11744
▁türkiye	-11745
▁resimler	-11746
▁deneyimli	-11747
▁so	-11748
▁rev	-11749
▁suya	-11750
▁tetik	-11751
▁gecesi	-11752
▁oturum	-11753
▁Brezilya	-11754
▁Operasyon	-11755
▁International	-11756
-9	-11757
▁dü	-11758
▁bastır	-11759
▁yatırma	-11760
123	-11761
egas	-11762
layı	-11763
▁SAH	-11764
▁Çel	-11765
tekin	-11766
▁Mahk	-11767
▁Ümit	-11768
bulans	-11769
▁cerrahi	-11770
▁konuşul	-11771
▁Kahvaltı	-11772
Ab	-11773
dian	-11774
▁SÖZ	-11775
almol	-11776
tions	-11777
▁karışık	-11778
▁olsaydı	-11779
▁İstiklal	-11780
▁olmasıdır	-11781
▁oluşturulan	-11782
▁Ep	-11783
GRAM	-11784
kılı	-11785
▁3.5	-11786
aptop	-11787
▁Yapım	-11788
▁görme	-11789
ırsınız	-11790
▁anlama	-11791
▁gücünü	-11792
▁yarısı	-11793
▁Denetim	-11794
yor	-11795
▁sandık	-11796
▁güncelleme	-11797
▁görüntülendi	-11798
▁●	-11799
▁Up	-11800
▁Coş	-11801
▁GAL	-11802
ember	-11803
▁koca	-11804
melisiniz	-11805
▁EF	-11806
aseb	-11807
▁978	-11808
▁Trak	-11809
▁müst	-11810
▁play	-11811
▁yalı	-11812
▁durumuna	-11813
cik	-11814
▁neş	-11815
▁Kollu	-11816
ağından	-11817
▁direktör	-11818
▁(11	-11819
▁ALAN	-11820
▁kade	-11821
▁bahçe	-11822
▁katlı	-11823
▁etkinliği	-11824
/05	-11825
▁SK	-11826
Bugün	-11827
▁OLDU	-11828
▁Veli	-11829
▁başa	-11830
▁iddaa	-11831
▁müsait	-11832
▁Dünyada	-11833
▁YATIRIM	-11834
▁saatlik	-11835
Bul	-11836
▁(18	-11837
▁muc	-11838
▁2020,	-11839
▁şansı	-11840
▁vergisi	-11841
▁Muharrem	-11842
Mar	-11843
İRK	-11844
adiş	-11845
onomi	-11846
▁hoca	-11847
▁Ekrem	-11848
▁Saati	-11849
▁Avustur	-11850
ünce	-11851
▁Kans	-11852
imasyon	-11853
▁kardeşi	-11854
▁tuvalet	-11855
▁yararlı	-11856
BET	-11857
tiy	-11858
▁1.6	-11859
▁SGK	-11860
▁Melek	-11861
▁sıral	-11862
▁herşey	-11863
▁bilgilendirme	-11864
/04	-11865
▁sex	-11866
▁bant	-11867
▁borc	-11868
▁müte	-11869
▁tıbbi	-11870
▁zorlan	-11871
▁Sürekli	-11872
▁otopark	-11873
▁giderken	-11874
XL	-11875
tes	-11876
dışı	-11877
▁***	-11878
▁biş	-11879
▁komşu	-11880
▁namazı	-11881
▁etkileyen	-11882
Mes	-11883
das	-11884
için	-11885
▁ini	-11886
▁süp	-11887
Konya	-11888
▁Gömlek	-11889
▁adaylar	-11890
▁duyduğu	-11891
▁oluşturur	-11892
iğit	-11893
▁fıkr	-11894
alarca	-11895
▁Petrol	-11896
▁domates	-11897
▁geçiren	-11898
▁temizliği	-11899
▁112	-11900
▁YAK	-11901
▁Ünal	-11902
▁Arası	-11903
▁Gelecek	-11904
▁gerilim	-11905
DK	-11906
▁98	-11907
▁Led	-11908
▁PDF	-11909
▁....	-11910
▁Rektör	-11911
▁bıraktı	-11912
▁sayfası	-11913
▁Ertuğrul	-11914
▁gereksiz	-11915
▁alanlarında	-11916
▁ihtiyaçlarını	-11917
kö	-11918
▁HAZ	-11919
amıza	-11920
▁King	-11921
▁mutf	-11922
▁nöbet	-11923
▁yavru	-11924
operatif	-11925
ısındaki	-11926
▁başlığı	-11927
▁Ülkemizde	-11928
▁Kuvvetleri	-11929
▁ilgilendir	-11930
5)	-11931
▁Gibi	-11932
▁garip	-11933
▁şeref	-11934
oleybol	-11935
▁metrekare	-11936
OSY	-11937
▁görüldü	-11938
▁istemez	-11939
▁kablosuz	-11940
.4	-11941
ezik	-11942
▁160	-11943
▁Mid	-11944
▁sir	-11945
menize	-11946
▁varsay	-11947
▁yapacağı	-11948
▁yaptığınız	-11949
âb	-11950
CAK	-11951
uzun	-11952
▁Mum	-11953
ıplak	-11954
▁Başk	-11955
▁köprü	-11956
▁kıyafet	-11957
▁istenilen	-11958
gov	-11959
▁Wh	-11960
▁(5)	-11961
▁Yeter	-11962
▁vakti	-11963
▁analizi	-11964
▁başkenti	-11965
!)	-11966
ÜNYA	-11967
▁Cer	-11968
▁Hediy	-11969
▁Taşın	-11970
▁Yazan	-11971
▁hikây	-11972
▁sayfasında	-11973
Has	-11974
kif	-11975
▁je	-11976
ellef	-11977
▁olursak	-11978
▁İlişkin	-11979
abilirsin	-11980
▁ilerleyen	-11981
▁açıklamalar	-11982
▁yetkilileri	-11983
▁Sınır	-11984
▁kişiden	-11985
▁Internet	-11986
▁İmamoğlu	-11987
▁Sonuçları	-11988
-2016	-11989
▁Kuru	-11990
▁Sınavı	-11991
▁Bakanlık	-11992
▁Orijinal	-11993
▁sonradan	-11994
not	-11995
şeyi	-11996
▁31.	-11997
▁Rah	-11998
▁kavga	-11999
▁melek	-12000
▁Dernek	-12001
▁itiraf	-12002
▁yüklen	-12003
▁çözünür	-12004
▁Faaliyet	-12005
▁Washington	-12006
Id	-12007
▁akla	-12008
▁geçirdi	-12009
▁açılması	-12010
cer	-12011
▁Gü	-12012
outh	-12013
▁11,	-12014
LARIN	-12015
Sağlık	-12016
▁sınırsız	-12017
▁lif	-12018
▁Kalem	-12019
▁Toplu	-12020
▁duran	-12021
▁zafer	-12022
▁siyasal	-12023
▁çamaşır	-12024
▁pasaport	-12025
▁yaratıcı	-12026
▁Genellikle	-12027
sub	-12028
atma	-12029
▁+90	-12030
▁kuz	-12031
▁naz	-12032
-2020	-12033
▁Olur	-12034
▁PROJ	-12035
▁dâhil	-12036
▁dolara	-12037
▁almanıza	-12038
▁söylemiş	-12039
▁yaşınday	-12040
Öz	-12041
▁İy	-12042
ames	-12043
bakanı	-12044
▁elini	-12045
▁posta	-12046
▁bugünkü	-12047
▁toplamda	-12048
▁başlamıştır	-12049
İG	-12050
ages	-12051
▁Angel	-12052
▁Faruk	-12053
▁Özcan	-12054
▁kopyası	-12055
▁tecavüz	-12056
▁dünyasında	-12057
▁muhtemelen	-12058
read	-12059
▁Sof	-12060
▁dig	-12061
İSTEM	-12062
▁Hasta	-12063
Antalya	-12064
▁Çekici	-12065
▁satılan	-12066
▁erkeklerin	-12067
▁fırın	-12068
▁Amasya	-12069
▁Tedavi	-12070
▁iphone	-12071
▁topluluk	-12072
Büyük	-12073
akkab	-12074
wagen	-12075
follow	-12076
▁kanat	-12077
▁Girişi	-12078
▁PROGRAM	-12079
▁disiplin	-12080
▁kurulmuş	-12081
▁sektörde	-12082
▁yi	-12083
Diğer	-12084
▁Artı	-12085
▁buluştu	-12086
▁tespiti	-12087
▁olursunuz	-12088
YD	-12089
ges	-12090
rad	-12091
▁ADET	-12092
▁verip	-12093
▁İçeri	-12094
▁Demirel	-12095
▁gazetesi	-12096
▁şö	-12097
▁Acı	-12098
ersen	-12099
▁Kole	-12100
▁Mekt	-12101
▁üzül	-12102
▁denen	-12103
▁kolye	-12104
▁maçın	-12105
▁Moskova	-12106
▁başlattı	-12107
▁gazeteci	-12108
▁kalitesini	-12109
▁üyelerinin	-12110
▁Eşya	-12111
▁karn	-12112
▁heyet	-12113
▁komik	-12114
▁iyileş	-12115
▁onarım	-12116
▁çalıştı	-12117
▁şartlar	-12118
gini	-12119
mama	-12120
▁EŞYA	-12121
istler	-12122
ozisyon	-12123
▁Yazıcı	-12124
▁yapmam	-12125
▁adımlar	-12126
▁herkesi	-12127
▁işçiler	-12128
▁olmamak	-12129
▁Erzincan	-12130
▁hikayesi	-12131
▁Tev	-12132
leşen	-12133
▁döner	-12134
▁ekleyin	-12135
▁kurumlar	-12136
▁aldığınız	-12137
▁←	-12138
▁Jo	-12139
▁2.0	-12140
▁Ait	-12141
bebek	-12142
takım	-12143
▁Afgan	-12144
▁tavır	-12145
▁özgün	-12146
▁etmeyin	-12147
▁olanların	-12148
gy	-12149
▁ÖS	-12150
null	-12151
▁bilinc	-12152
▁kimseye	-12153
▁örgütün	-12154
▁kalitede	-12155
▁müracaat	-12156
OCUK	-12157
▁KAZ	-12158
▁Sahip	-12159
▁koydu	-12160
▁yoksul	-12161
▁yerleşim	-12162
/03	-12163
ırp	-12164
▁HAT	-12165
▁alev	-12166
▁isyan	-12167
▁Tercih	-12168
▁sahada	-12169
▁uygundur	-12170
rc	-12171
osh	-12172
▁69	-12173
▁pik	-12174
barat	-12175
▁Çakır	-12176
▁Önder	-12177
enlerin	-12178
▁Serkan	-12179
alarımız	-12180
▁elektrikli	-12181
Gel	-12182
▁Gem	-12183
▁SIN	-12184
Genel	-12185
▁Umarız	-12186
▁Anlatım	-12187
▁organik	-12188
SAL	-12189
▁Erken	-12190
▁titiz	-12191
▁Raporu	-12192
▁insanlık	-12193
▁kararını	-12194
▁yönetici	-12195
▁ortamında	-12196
▁82	-12197
ulum	-12198
▁Hid	-12199
▁Esas	-12200
▁inci	-12201
▁menü	-12202
▁Taksit	-12203
▁ekledi	-12204
▁tarihte	-12205
elikopter	-12206
▁hayatında	-12207
▁şirketler	-12208
Tem	-12209
veç	-12210
ÜZEL	-12211
▁Günün	-12212
▁Hakkı	-12213
▁direnç	-12214
▁mesajları	-12215
▁gönderdiğiniz	-12216
gele	-12217
part	-12218
▁Lok	-12219
▁Fırs	-12220
▁Bende	-12221
amadığı	-12222
tiğinde	-12223
▁Kızılay	-12224
▁Sponsor	-12225
▁sevinirim	-12226
ls	-12227
▁а	-12228
eron	-12229
▁CAD	-12230
▁Uşak	-12231
▁tutk	-12232
ilivri	-12233
▁Aylık	-12234
▁Rehber	-12235
▁fatura	-12236
▁yazmak	-12237
".	-12238
300	-12239
ping	-12240
▁(15	-12241
▁Hus	-12242
adası	-12243
▁euro	-12244
▁Hocam	-12245
▁kader	-12246
▁basınç	-12247
▁kuvvetli	-12248
▁yaptığım	-12249
bilirsiniz	-12250
eller	-12251
▁birde	-12252
kswagen	-12253
▁tarafta	-12254
▁Menderes	-12255
▁medeniyet	-12256
▁oluşturduğu	-12257
DIM	-12258
▁220	-12259
▁Fah	-12260
▁TER	-12261
▁Kurs	-12262
▁ayrılan	-12263
▁türleri	-12264
▁piyasada	-12265
▁şehrinde	-12266
▁Toplantısı	-12267
allı	-12268
ğdır	-12269
▁Ant	-12270
dukça	-12271
▁artar	-12272
elerimiz	-12273
eteriner	-12274
▁merkezli	-12275
▁dahilinde	-12276
▁muhalefet	-12277
▁etkinlikleri	-12278
ume	-12279
▁84	-12280
tisi	-12281
▁evlat	-12282
▁Ermeni	-12283
▁sınıfı	-12284
▁verdiğini	-12285
SYM	-12286
tey	-12287
rent	-12288
▁lin	-12289
▁pis	-12290
▁alar	-12291
▁Hamza	-12292
▁Lider	-12293
▁girişi	-12294
▁yoldan	-12295
tom	-12296
▁:))	-12297
▁çub	-12298
▁seti	-12299
▁pembe	-12300
▁yağlı	-12301
▁zeytiny	-12302
▁röportaj	-12303
▁Kül	-12304
▁Seri	-12305
▁YORUM	-12306
▁Serbest	-12307
▁artması	-12308
▁gelişimi	-12309
/6	-12310
efa	-12311
ged	-12312
▁Jul	-12313
▁inde	-12314
▁Sinem	-12315
ılırken	-12316
▁SİSTEM	-12317
Ür	-12318
AYI	-12319
MEK	-12320
▁Vis	-12321
▁Dans	-12322
amazan	-12323
▁Analiz	-12324
▁girmiş	-12325
▁hırsız	-12326
▁unutul	-12327
kâr	-12328
▁5-	-12329
▁cil	-12330
▁Günde	-12331
▁Kemer	-12332
▁aynen	-12333
▁güler	-12334
▁yazma	-12335
iyetini	-12336
▁Volkan	-12337
▁kadına	-12338
▁Komutanlığı	-12339
▁çevrilmiştir	-12340
Sur	-12341
ugu	-12342
usa	-12343
Bursa	-12344
Samsun	-12345
ginden	-12346
▁limit	-12347
content	-12348
▁parayı	-12349
▁görünen	-12350
ENK	-12351
▁Büt	-12352
lüğünü	-12353
▁Hayal	-12354
▁Mağaz	-12355
▁gümrük	-12356
▁yollar	-12357
▁üretmek	-12358
▁başarıyla	-12359
▁istemiyor	-12360
▁sürdürüyor	-12361
➖➖	-12362
ato	-12363
tüğü	-12364
▁[1]	-12365
-2019	-12366
▁gürül	-12367
▁inanc	-12368
▁atmosfer	-12369
▁bilmiyor	-12370
▁yapıldığını	-12371
Eğ	-12372
▁nur	-12373
▁Avcı	-12374
▁yansım	-12375
▁olmasından	-12376
YO	-12377
füm	-12378
▁CN	-12379
itor	-12380
▁Pembe	-12381
Kas	-12382
aray	-12383
▁spr	-12384
▁Bulun	-12385
▁Demirtaş	-12386
▁ücretleri	-12387
▁hazırlanmış	-12388
Ge	-12389
/19	-12390
değ	-12391
çika	-12392
▁BAĞ	-12393
▁zem	-12394
/2016	-12395
yazılı	-12396
▁aittir	-12397
▁İdaresi	-12398
▁artırmak	-12399
▁katılmak	-12400
Af	-12401
TB	-12402
-24	-12403
KDV	-12404
▁fikr	-12405
Hotels	-12406
▁evvel	-12407
amaları	-12408
▁Birbir	-12409
▁savaşı	-12410
▁Puanınız	-12411
▁avantajlı	-12412
▁adresinden	-12413
▁çevirileri	-12414
TUR	-12415
duct	-12416
emde	-12417
ligi	-12418
▁SEO	-12419
▁SOR	-12420
osunu	-12421
▁sorgulama	-12422
yumu	-12423
▁layık	-12424
ladığını	-12425
▁başlandı	-12426
▁hükümeti	-12427
▁alınmıştır	-12428
Yaş	-12429
▁Cal	-12430
▁cek	-12431
▁atmak	-12432
▁Çıkar	-12433
▁okudum	-12434
▁yaşadı	-12435
▁hissettir	-12436
üzg	-12437
▁bo	-12438
▁360	-12439
▁alet	-12440
▁mağaza	-12441
▁Yolları	-12442
▁kaplama	-12443
▁Copyright	-12444
▁kullanıyorum	-12445
mun	-12446
▁MP	-12447
▁(20	-12448
▁Sec	-12449
▁oğlum	-12450
▁Değerli	-12451
▁Hakkari	-12452
leyebilir	-12453
▁sağlanan	-12454
▁İskender	-12455
TP	-12456
uj	-12457
AYAN	-12458
vesi	-12459
▁18,	-12460
İLERİ	-12461
▁otob	-12462
▁Değil	-12463
▁Kumaş	-12464
gunu	-12465
▁rot	-12466
ehenn	-12467
navut	-12468
▁2010,	-12469
▁yaşar	-12470
ılabilecek	-12471
▁Böylelikle	-12472
▁kaynaklanan	-12473
▁çalışmaların	-12474
▁#2	-12475
ilin	-12476
▁Vir	-12477
ademi	-12478
att	-12479
sah	-12480
▁Sw	-12481
▁Real	-12482
▁nadir	-12483
▁sevdik	-12484
▁varmış	-12485
]},	-12486
▁Cel	-12487
▁Mol	-12488
▁YOK	-12489
▁ked	-12490
▁ler	-12491
▁şap	-12492
▁açar	-12493
elleri	-12494
▁kararlar	-12495
▁Konuk	-12496
▁iltih	-12497
klareli	-12498
▁arayın	-12499
▁tüketimi	-12500
▁ödemeler	-12501
▁açıklamasında	-12502
.19	-12503
Bay	-12504
oni	-12505
fice	-12506
▁YOL	-12507
ergah	-12508
çuklu	-12509
▁UEFA	-12510
▁Esnaf	-12511
liyorum	-12512
▁Montaj	-12513
lediğini	-12514
▁nükleer	-12515
PU	-12516
nes	-12517
▁(13	-12518
-2009	-12519
▁Tart	-12520
▁vurdu	-12521
icileri	-12522
▁birinde	-12523
▁Ret	-12524
▁led	-12525
cedes	-12526
maris	-12527
üstri	-12528
▁NATO	-12529
▁TOKİ	-12530
▁Liste	-12531
hep	-12532
iret	-12533
▁macer	-12534
▁maden	-12535
▁mesleğ	-12536
▁mesleki	-12537
▁Bildirim	-12538
▁Başkanımız	-12539
▁Big	-12540
estel	-12541
Türkçe	-12542
▁İlanı	-12543
▁onlarla	-12544
▁ihtimali	-12545
▁seyahatinizi	-12546
olan	-12547
▁gülüm	-12548
▁diğeri	-12549
▁tamiri	-12550
▁Milletler	-12551
▁aracılığı	-12552
🇹🇷	-12553
Seç	-12554
iha	-12555
ally	-12556
ışın	-12557
▁22.	-12558
▁Altı	-12559
▁koyu	-12560
▁Dubai	-12561
▁YAPIL	-12562
▁dönen	-12563
▁haric	-12564
▁Yıllık	-12565
▁bakmak	-12566
▁içecek	-12567
▁samsun	-12568
▁aşamada	-12569
▁belirsiz	-12570
Su	-12571
TAK	-12572
TAŞ	-12573
nci	-12574
▁oc	-12575
2016	-12576
alya	-12577
▁Tap	-12578
ığının	-12579
▁tarihe	-12580
▁nasıldı	-12581
▁Soğuk	-12582
▁antik	-12583
▁müthiş	-12584
▁göstergesi	-12585
▁Restoranlar	-12586
▁istemiyorum	-12587
LÜĞÜ	-12588
atıcı	-12589
▁Tags	-12590
▁Enter	-12591
▁Yoğun	-12592
▁kuruş	-12593
▁çağdaş	-12594
▁imkansız	-12595
larımızdan	-12596
Gön	-12597
▁Ir	-12598
▁baraj	-12599
▁kuran	-12600
ticaret	-12601
▁Filmler	-12602
▁Otopark	-12603
▁noktaları	-12604
▁Değerlendirme	-12605
▁م	-12606
▁eks	-12607
letin	-12608
▁işken	-12609
▁liman	-12610
▁Bizler	-12611
▁bağlıdır	-12612
▁geldiniz	-12613
▁edilmelidir	-12614
Re	-12615
USU	-12616
tirici	-12617
▁bursa	-12618
▁girerek	-12619
▁geçirildi	-12620
▁edildiğini	-12621
ânı	-12622
▁kasa	-12623
iliğin	-12624
▁dersi	-12625
▁Kutusu	-12626
▁oturma	-12627
▁Kullanımı	-12628
iss	-12629
▁96	-12630
▁Bot	-12631
▁mült	-12632
▁pres	-12633
▁düşer	-12634
▁iştir	-12635
▁programında	-12636
▁sağlayacaktır	-12637
GR	-12638
Yaz	-12639
..."	-12640
▁RAP	-12641
asite	-12642
▁etmey	-12643
▁kurdu	-12644
▁yumurt	-12645
LL	-12646
List	-12647
gücü	-12648
▁Teh	-12649
tisiz	-12650
ünüzü	-12651
alarak	-12652
▁aydır	-12653
▁ilham	-12654
ılmalıdır	-12655
▁programına	-12656
acag	-12657
içeği	-12658
▁tavan	-12659
▁Çağrı	-12660
lığıyla	-12661
▁Yumuşak	-12662
▁yazmaya	-12663
▁yazılan	-12664
▁sergilen	-12665
▁inceliyoruz	-12666
föy	-12667
LEME	-12668
▁Bro	-12669
▁Mete	-12670
▁ekle	-12671
▁Anket	-12672
▁Ermen	-12673
▁Sivil	-12674
▁uydur	-12675
▁vesile	-12676
▁düşünen	-12677
▁Pakistan	-12678
▁Restoran	-12679
İç	-12680
imal	-12681
▁rız	-12682
▁alerj	-12683
▁filmler	-12684
▁kalmadı	-12685
▁Survivor	-12686
▁MAHALLESİ	-12687
▁bölgedeki	-12688
▁sözlerini	-12689
▁hareketler	-12690
CHP	-12691
▁Alex	-12692
▁prop	-12693
adişah	-12694
▁açığa	-12695
▁geçin	-12696
▁rejim	-12697
▁şüphel	-12698
▁youtube	-12699
▁Kurtuluş	-12700
▁Pantolon	-12701
▁konusundaki	-12702
▁CH	-12703
▁riv	-12704
ümüzü	-12705
▁menf	-12706
▁öğle	-12707
▁fikri	-12708
▁ziyade	-12709
▁etmekte	-12710
▁Üsküdar	-12711
▁öncelikli	-12712
▁İmparator	-12713
âz	-12714
KAR	-12715
baba	-12716
▁(14	-12717
▁140	-12718
▁SEÇ	-12719
▁Yrd	-12720
▁hek	-12721
▁ört	-12722
▁Dini	-12723
▁Çoğu	-12724
başkan	-12725
▁Sonbahar	-12726
Tur	-12727
▁SORU	-12728
▁Ajans	-12729
▁Bekir	-12730
▁GÜVEN	-12731
▁Market	-12732
▁sezonu	-12733
▁Belgesi	-12734
▁dönemine	-12735
▁sitesine	-12736
▁aldıkları	-12737
▁Çavuşoğlu	-12738
▁Beylikdüzü	-12739
▁Aksesuarları	-12740
fuk	-12741
EŞİL	-12742
itab	-12743
amamış	-12744
dolabı	-12745
▁iyisi	-12746
▁İkili	-12747
▁açtığı	-12748
▁ekleme	-12749
▁bununla	-12750
▁mobilya	-12751
▁yakında	-12752
▁sürdüren	-12753
▁yakınlarında	-12754
els	-12755
pen	-12756
indek	-12757
▁cuma	-12758
▁Aracı	-12759
▁döndür	-12760
▁giriyor	-12761
duklarını	-12762
▁askerlik	-12763
▁muhafaza	-12764
▁maddeleri	-12765
▁üreticiler	-12766
AND	-12767
▁Dilek	-12768
▁Yetiş	-12769
▁Bitlis	-12770
▁Yıkama	-12771
▁yetmez	-12772
ALE	-12773
eve	-12774
▁350	-12775
▁Belli	-12776
▁Hatır	-12777
▁Konum	-12778
▁donat	-12779
lemeler	-12780
▁randevu	-12781
▁bitkisel	-12782
▁nitelikli	-12783
▁ob	-12784
IKÖY	-12785
suna	-12786
ürük	-12787
▁Eser	-12788
▁trav	-12789
▁veda	-12790
Kullan	-12791
▁Güçlü	-12792
▁vurgu	-12793
▁Hazret	-12794
▁Bilecik	-12795
▁alındığı	-12796
▁Sekreteri	-12797
▁ettiklerini	-12798
▁fiyatlarını	-12799
Ark	-12800
▁71	-12801
ümde	-12802
▁Fre	-12803
▁Burs	-12804
▁şuan	-12805
▁okudu	-12806
▁otele	-12807
▁aramak	-12808
▁kripto	-12809
▁görüntüler	-12810
▁Malzemeleri	-12811
web	-12812
şar	-12813
▁PL	-12814
falt	-12815
▁SEN	-12816
▁Best	-12817
▁Hint	-12818
▁İşçi	-12819
▁periy	-12820
▁yetki	-12821
▁yolun	-12822
▁Özkan	-12823
▁hikaye	-12824
▁sözlük	-12825
▁bardağı	-12826
▁gençlik	-12827
▁Ortalama	-12828
▁130	-12829
Osman	-12830
▁bran	-12831
▁Güler	-12832
▁Sinop	-12833
▁ulaşın	-12834
▁beğendi	-12835
▁beraberlik	-12836
▁firmaların	-12837
inat	-12838
▁Yur	-12839
acası	-12840
▁DERS	-12841
▁kıyı	-12842
▁rüya	-12843
üldüğü	-12844
▁kontr	-12845
▁Kütahya	-12846
▁eksiksiz	-12847
▁yakınındaki	-12848
▁özelliklerini	-12849
”.	-12850
▃▃	-12851
NAK	-12852
▁etek	-12853
▁hâlâ	-12854
kinlik	-12855
▁Yarım	-12856
▁somut	-12857
▁yürüm	-12858
▁Mahkeme	-12859
lendirici	-12860
daha	-12861
▁ceb	-12862
▁rica	-12863
▁Sendik	-12864
▁Bunları	-12865
▁HABERLER	-12866
▁kitaplar	-12867
▁konumuna	-12868
▁arayanlar	-12869
CAN	-12870
▁Fe	-12871
league	-12872
luğunda	-12873
▁merdiven	-12874
▁tüketici	-12875
ebileceğini	-12876
▁Oyn	-12877
İnsan	-12878
▁Kaçak	-12879
▁oturan	-12880
▁tecrübe	-12881
oss	-12882
üsk	-12883
arka	-12884
▁İmar	-12885
▁basıl	-12886
▁hijyen	-12887
▁parçalar	-12888
▁mücadelesi	-12889
▁sitesinden	-12890
▁toplantıda	-12891
KA	-12892
bata	-12893
maye	-12894
▁Gebze	-12895
▁Siirt	-12896
▁dudak	-12897
▁Street	-12898
▁şeffaf	-12899
▁değilse	-12900
▁girdiği	-12901
▁ilçesine	-12902
▁severler	-12903
▁Paslanmaz	-12904
▁getirerek	-12905
Öğr	-12906
▁LTD	-12907
▁rus	-12908
▁West	-12909
▁gereğ	-12910
▁şikay	-12911
▁hamile	-12912
▁yapmadan	-12913
Le	-12914
eyz	-12915
aday	-12916
graf	-12917
oksi	-12918
▁PTT	-12919
▁içe	-12920
▁out	-12921
▁şen	-12922
etooth	-12923
▁boşalt	-12924
▁versin	-12925
▁Aksaray	-12926
▁etkisini	-12927
▁oluşuyor	-12928
▁nar	-12929
iness	-12930
ılımı	-12931
▁Çince	-12932
▁Puanla	-12933
▁doğrusu	-12934
▁geçecek	-12935
yy	-12936
ote	-12937
▁92	-12938
,...	-12939
▁KOL	-12940
▁Mul	-12941
▁YET	-12942
▁abd	-12943
▁İçer	-12944
▁Şark	-12945
ilmeli	-12946
.7	-12947
ýþ	-12948
Rus	-12949
aaaa	-12950
ancı	-12951
-2012	-12952
arlık	-12953
pazarı	-12954
▁keyfini	-12955
▁sitesinin	-12956
▁planlamanıza	-12957
/07	-12958
göl	-12959
▁Nam	-12960
eksika	-12961
uçları	-12962
hendisi	-12963
▁Sayılı	-12964
▁müdürü	-12965
▁taahhüt	-12966
▁fazlasıyla	-12967
▁seviyesine	-12968
▁gayrimenkul	-12969
Say	-12970
▁Us	-12971
▁nc	-12972
▁üreten	-12973
▁aldıktan	-12974
▁teslimat	-12975
lenmektedir	-12976
▁Seni	-12977
▁İsim	-12978
▁Borsa	-12979
▁Trend	-12980
▁Bartın	-12981
▁Sarayı	-12982
▁Küresel	-12983
emektedir	-12984
spot	-12985
abiye	-12986
▁dikkati	-12987
▁Gönderim	-12988
▁maddesinde	-12989
▁uygulanması	-12990
▁ID	-12991
▁TRY	-12992
▁Kaza	-12993
▁cins	-12994
▁Örgü	-12995
▁Hatip	-12996
▁sağladı	-12997
▁Çamaşır	-12998
üntü	-12999
▁Rol	-13000
▁Derin	-13001
▁alıntı	-13002
▁antalya	-13003
▁yazılar	-13004
▁kelimeler	-13005
▁sorunların	-13006
▁vazgeçilmez	-13007
ıldım	-13008
▁Erişim	-13009
▁sınavı	-13010
▁yasağı	-13011
▁durumunu	-13012
▁geçirmez	-13013
▁toplanan	-13014
▁Kaymakamı	-13015
▁gösterilsin	-13016
▁bakıldığında	-13017
▁olabileceğini	-13018
KUR	-13019
ian	-13020
▁MB	-13021
▁Kek	-13022
▁Adem	-13023
▁metro	-13024
ography	-13025
▁Bakanlar	-13026
hp	-13027
▁_	-13028
FETÖ	-13029
▁14,	-13030
▁neg	-13031
ettin	-13032
▁Harika	-13033
▁İhracat	-13034
▁yapacağınız	-13035
fte	-13036
▁ESK	-13037
▁Enf	-13038
▁Şti	-13039
aktif	-13040
▁Zeki	-13041
▁sans	-13042
▁kucak	-13043
▁misin	-13044
▁Sigara	-13045
▁geçtik	-13046
▁Bilgisi	-13047
▁güçleri	-13048
Düzenleme	-13049
▁diyorlar	-13050
▁belirtmek	-13051
ýk	-13052
İlk	-13053
▁AH	-13054
ella	-13055
eğli	-13056
▁Hor	-13057
▁Polat	-13058
▁Soylu	-13059
▁Efendi	-13060
▁Onların	-13061
lerimizde	-13062
▁tansiyon	-13063
▁yardımcısı	-13064
▁danışmanlık	-13065
UV	-13066
▁ب	-13067
Bah	-13068
dust	-13069
▁Türü	-13070
▁Abdul	-13071
▁Frank	-13072
▁Pendik	-13073
▁kazası	-13074
▁salgın	-13075
▁tescil	-13076
▁Yetkili	-13077
GO	-13078
SP	-13079
.25	-13080
opa	-13081
▁83	-13082
aşım	-13083
ruklu	-13084
▁Cafe	-13085
▁Köpr	-13086
▁intik	-13087
▁Cerrah	-13088
▁ayının	-13089
▁İçinde	-13090
▁çalışırken	-13091
▁öğrencinin	-13092
▁memnuniyeti	-13093
▁orijinalinin	-13094
mic	-13095
▁AĞ	-13096
▁pc	-13097
icil	-13098
güven	-13099
▁Nokt	-13100
▁Hekim	-13101
▁yüklü	-13102
▁seviyor	-13103
▁haftanın	-13104
▁verdiğimiz	-13105
▁değiştirmek	-13106
▁Um	-13107
▁URL	-13108
▁van	-13109
▁Formu	-13110
▁algıl	-13111
lamanın	-13112
▁meşhur	-13113
▁etmiyor	-13114
malarının	-13115
▁hastalar	-13116
▁ilişkisi	-13117
▁ticareti	-13118
▁haftasında	-13119
▁KOR	-13120
▁Pub	-13121
▁Çil	-13122
▁adil	-13123
▁kare	-13124
▁manz	-13125
▁böcek	-13126
▁Sigort	-13127
▁islami	-13128
▁reddet	-13129
▁seçimleri	-13130
▁temizleme	-13131
▁fotoğraflar	-13132
ago	-13133
izmi	-13134
Google	-13135
▁Hattı	-13136
▁pilot	-13137
▁Editör	-13138
▁mısınız	-13139
▁istedikleri	-13140
▁FI	-13141
ross	-13142
▁CEO	-13143
▁fes	-13144
dirme	-13145
mazlık	-13146
▁Grand	-13147
▁bişey	-13148
▁umarım	-13149
▁Nitekim	-13150
▁adresine	-13151
▁uygulanır	-13152
üü	-13153
▁Vin	-13154
ığına	-13155
▁1998	-13156
▁ilde	-13157
▁sens	-13158
▁edelim	-13159
▁milliyet	-13160
▁gezginden	-13161
▁Kedi	-13162
▁kurt	-13163
▁titr	-13164
▁maske	-13165
▁kaleme	-13166
lediğimiz	-13167
▁muhtemel	-13168
▁Danışmanlık	-13169
dv	-13170
Pol	-13171
imer	-13172
▁Berg	-13173
▁Ozan	-13174
▁anım	-13175
lilere	-13176
▁Erkan	-13177
▁fazlad	-13178
▁onaylan	-13179
▁çatışma	-13180
▁önemini	-13181
▁İndirim	-13182
▁eksikliği	-13183
▁dünyasının	-13184
▁politikası	-13185
▁verdikleri	-13186
▁gelişmeleri	-13187
▁у	-13188
KİN	-13189
▁94	-13190
▁Reg	-13191
manya	-13192
verengi	-13193
▁ailenin	-13194
OF	-13195
anz	-13196
ardo	-13197
ology	-13198
▁coşk	-13199
▁oksi	-13200
▁emeği	-13201
▁toprağa	-13202
▁Çeşitli	-13203
▁Etkinlik	-13204
▁bölümünü	-13205
▁Önerinizi	-13206
▁97	-13207
▁Bö	-13208
▁onar	-13209
▁duyul	-13210
▁neyse	-13211
▁aklıma	-13212
▁redded	-13213
▁Türkler	-13214
instagram	-13215
▁edilemez	-13216
▁yayınlan	-13217
▁belgeleri	-13218
▁gençlerin	-13219
▁geliştirilen	-13220
▁GÖ	-13221
▁fl	-13222
BOOK	-13223
ıysa	-13224
▁Bang	-13225
▁Oran	-13226
▁işit	-13227
▁Planı	-13228
▁nasil	-13229
anyetik	-13230
▁dilediğiniz	-13231
SEK	-13232
sede	-13233
▁mum	-13234
▁Sing	-13235
celona	-13236
▁google	-13237
▁medyum	-13238
▁tümünü	-13239
▁teşkilat	-13240
üğü	-13241
▁13,	-13242
▁vas	-13243
▁İNŞ	-13244
▁Ülke	-13245
▁elden	-13246
▁okulu	-13247
handlers	-13248
▁Gayrimenkul	-13249
▁milletvekil	-13250
▁yapabilecek	-13251
▁fe	-13252
kurt	-13253
▁KES	-13254
▁cum	-13255
▁öyk	-13256
▁Deney	-13257
▁Yazın	-13258
▁Mahall	-13259
▁artışı	-13260
▁herhalde	-13261
▁ülkeleri	-13262
▁ağırlıklı	-13263
▁insanlarla	-13264
▁müşterilerine	-13265
ým	-13266
ford	-13267
▁Tit	-13268
▁pul	-13269
▁ardı	-13270
▁üste	-13271
lamayı	-13272
▁vuruş	-13273
▁SAĞLIK	-13274
▁boyutlu	-13275
▁kanseri	-13276
▁yaratan	-13277
▁oluyoruz	-13278
▁yuvarlak	-13279
▁Ra	-13280
AZAR	-13281
abah	-13282
ürüz	-13283
▁(17	-13284
▁eli	-13285
ersek	-13286
minin	-13287
▁boğaz	-13288
▁entegre	-13289
▁kültürü	-13290
ahit	-13291
akta	-13292
uyuz	-13293
▁Ağız	-13294
▁rady	-13295
ilmeye	-13296
▁rakib	-13297
▁yanıl	-13298
▁İhale	-13299
▁geleni	-13300
▁başardı	-13301
▁yarattığı	-13302
▁Temsilcisi	-13303
▁Afyonkarahisar	-13304
ğin	-13305
▁DIY	-13306
▁POL	-13307
▁Fuar	-13308
▁ödülü	-13309
▁android	-13310
▁Valiliği	-13311
▁yükselen	-13312
▁oyuncuları	-13313
▁^	-13314
ents	-13315
▁Ala	-13316
▁KİM	-13317
▁OLM	-13318
▁lev	-13319
▁Dalı	-13320
alisyon	-13321
▁Yangın	-13322
▁Yanlış	-13323
▁ayrıldı	-13324
▁sorusuna	-13325
▁geçerlidir	-13326
atih	-13327
ptör	-13328
uhaf	-13329
▁jel	-13330
▁Dağı	-13331
▁renkler	-13332
▁fazlasını	-13333
▁belirlemek	-13334
▁hassasiyet	-13335
ibir	-13336
▁Pop	-13337
ingir	-13338
▁Akar	-13339
▁fren	-13340
▁meşru	-13341
▁elektr	-13342
▁Tekstil	-13343
▁bölgelerde	-13344
uu	-13345
COM	-13346
▁MEB	-13347
▁döş	-13348
▁1500	-13349
▁ayet	-13350
acılar	-13351
malink	-13352
▁Bakın	-13353
▁iktid	-13354
▁Başbakanı	-13355
▁içerisindeki	-13356
gay	-13357
organ	-13358
▁comp	-13359
▁Şüph	-13360
eyince	-13361
▁Taban	-13362
▁derim	-13363
eneksel	-13364
aziantep	-13365
▁etkisiz	-13366
▁Edebiyatı	-13367
▁tarihinin	-13368
▁başlatılan	-13369
AJ	-13370
cd	-13371
Diy	-13372
grama	-13373
eneral	-13374
▁Demek	-13375
▁sayın	-13376
▁eyalet	-13377
▁Gerekli	-13378
▁minimum	-13379
▁maddesinin	-13380
▁yıllarında	-13381
MB	-13382
TAJ	-13383
win	-13384
ezya	-13385
otal	-13386
▁Boya	-13387
▁cidd	-13388
▁köşe	-13389
▁stad	-13390
▁kapısı	-13391
▁mahkum	-13392
▁bilinçli	-13393
▁Avusturya	-13394
▁kendimizi	-13395
▁şirketlerin	-13396
Sel	-13397
edu	-13398
▁erek	-13399
▁sade	-13400
▁Hepsi	-13401
▁Askeri	-13402
▁Dursun	-13403
▁geçtiği	-13404
acağından	-13405
▁ürünlerini	-13406
ZER	-13407
.00’	-13408
ŞEHİR	-13409
unuzda	-13410
▁duyarlı	-13411
▁kalması	-13412
▁Şirketi	-13413
▁Osmaniye	-13414
▁girişimi	-13415
▁politika	-13416
▁yılların	-13417
▁başlaması	-13418
▁hayvanlar	-13419
▁mahallesi	-13420
maca	-13421
▁Dök	-13422
▁ant	-13423
-2014	-13424
ville	-13425
▁Arch	-13426
▁hafız	-13427
▁yapış	-13428
▁Binali	-13429
▁buldum	-13430
▁cenaze	-13431
▁sorusu	-13432
▁muayene	-13433
▁saatler	-13434
▁şehirde	-13435
▁Çocukların	-13436
▁bilinmektedir	-13437
PT	-13438
ONU	-13439
pik	-13440
onim	-13441
▁Mül	-13442
▁yon	-13443
cunun	-13444
▁Kutu	-13445
▁SATI	-13446
▁daim	-13447
▁hissi	-13448
▁İptal	-13449
▁Dönemi	-13450
▁Tekrar	-13451
▁kurucu	-13452
▁dersleri	-13453
Uz	-13454
▁Go	-13455
evre	-13456
irse	-13457
▁unu	-13458
▁yapıya	-13459
▁KADIKÖY	-13460
▁etmeden	-13461
▁transferi	-13462
▁tarihlerinde	-13463
esk	-13464
▁dalga	-13465
▁Haftası	-13466
▁Digitürk	-13467
▁Yukarıda	-13468
▁onlardan	-13469
în	-13470
▁KAS	-13471
▁çığ	-13472
▁depo	-13473
▁acent	-13474
▁lazer	-13475
UD	-13476
alp	-13477
kuş	-13478
▁va	-13479
ojen	-13480
▁KIS	-13481
ansal	-13482
▁nolu	-13483
▁arazi	-13484
▁değiştirme	-13485
▁çalışıyorum	-13486
leg	-13487
▁ÖR	-13488
umda	-13489
▁Dec	-13490
▁Sul	-13491
▁kast	-13492
▁akrab	-13493
▁önder	-13494
▁return	-13495
▁ailesinin	-13496
){	-13497
Book	-13498
▁Göç	-13499
▁muz	-13500
/2015	-13501
ablon	-13502
ilyon	-13503
istir	-13504
▁Belir	-13505
▁Kalın	-13506
▁gezeg	-13507
▁ihbar	-13508
▁sorul	-13509
▁endeks	-13510
▁geldim	-13511
▁Akhisar	-13512
▁Nakliye	-13513
▁sevilen	-13514
▁seviyesinde	-13515
/02	-13516
baz	-13517
oba	-13518
▁(6	-13519
▁Ag	-13520
lemi	-13521
▁NAK	-13522
üksek	-13523
▁sosy	-13524
▁SANAT	-13525
▁kızın	-13526
▁mantar	-13527
▁okuyan	-13528
▁çekilen	-13529
▁evlenmek	-13530
▁Cevapları	-13531
▁belirtileri	-13532
GA	-13533
SH	-13534
YK	-13535
ifer	-13536
▁Fur	-13537
ature	-13538
tiniz	-13539
▁Uzay	-13540
usuyla	-13541
▁Metro	-13542
▁hamur	-13543
▁inter	-13544
▁işsiz	-13545
▁miyim	-13546
▁sperm	-13547
▁İZMİR	-13548
▁görmez	-13549
▁koltuğ	-13550
▁Selçuklu	-13551
▁Firmaları	-13552
▁kullanıma	-13553
▁cezalandır	-13554
İZE	-13555
▁lm	-13556
irmen	-13557
▁frek	-13558
▁damla	-13559
▁keyfi	-13560
larımla	-13561
▁menfaat	-13562
▁tahliye	-13563
▁adayları	-13564
▁belirlem	-13565
▁Havaalanı	-13566
▁süresince	-13567
▁Yayıncılık	-13568
▁FA	-13569
burt	-13570
▁Dist	-13571
▁Next	-13572
▁delil	-13573
▁dönük	-13574
▁gitmiş	-13575
▁töreni	-13576
▁etmesini	-13577
EDE	-13578
chat	-13579
nova	-13580
▁25.	-13581
▁fot	-13582
▁mur	-13583
tülük	-13584
▁ÇOCUK	-13585
▁Yozgat	-13586
▁kanaat	-13587
▁uzunluğu	-13588
▁uzaklıkta	-13589
▁Devletleri	-13590
▁çalışmalara	-13591
▁Akş	-13592
▁Toy	-13593
mekle	-13594
ostüm	-13595
▁DÖNEM	-13596
▁desen	-13597
▁Artvin	-13598
▁Konusu	-13599
▁Taksim	-13600
▁denildi	-13601
▁değerler	-13602
▁etkinlikler	-13603
lî	-13604
aff	-13605
ign	-13606
CRET	-13607
▁BAH	-13608
▁lez	-13609
▁tüf	-13610
iaomi	-13611
▁makul	-13612
ilerinde	-13613
▁Silahlı	-13614
▁tıkanık	-13615
▁yükleme	-13616
▁günümüze	-13617
▁zorundadır	-13618
▁tasarlanmış	-13619
ahi	-13620
site	-13621
▁Vur	-13622
delik	-13623
üsünü	-13624
▁Aksi	-13625
▁data	-13626
bistan	-13627
▁Saygı	-13628
▁Beykoz	-13629
▁sınırı	-13630
▁dünyadaki	-13631
▁bulunmamaktadır	-13632
uml	-13633
▁1.0	-13634
▁Urfa	-13635
tainer	-13636
▁devamlı	-13637
▁belgeler	-13638
▁araçların	-13639
▁sorunlarını	-13640
ÜÇ	-13641
Bit	-13642
ado	-13643
▁3)	-13644
▁89	-13645
data	-13646
▁(16	-13647
▁Fas	-13648
▁NOT	-13649
▁Ona	-13650
▁Gran	-13651
▁Müst	-13652
▁Düzey	-13653
▁Kablo	-13654
▁dokuz	-13655
▁yazdır	-13656
▁kitabın	-13657
▁yazıyor	-13658
▁Portekiz	-13659
▁hastanın	-13660
▁gelecekte	-13661
▁kaydedildi	-13662
▁sorumluluğ	-13663
▁Mühendislik	-13664
▁konularında	-13665
IA	-13666
▁Lu	-13667
edan	-13668
▁3,5	-13669
Kitap	-13670
iberal	-13671
ebilirler	-13672
iliğinden	-13673
▁ihtiyaçları	-13674
kom	-13675
eyerek	-13676
▁kurut	-13677
▁oteli	-13678
▁Arapça	-13679
▁başrol	-13680
▁ilgisi	-13681
▁kalkın	-13682
▁motoru	-13683
▁Yargıtay	-13684
▁Şampiyonlar	-13685
BC	-13686
Kö	-13687
/08	-13688
hael	-13689
▁Nap	-13690
▁SMS	-13691
▁hel	-13692
▁Gold	-13693
▁Dosya	-13694
▁aldat	-13695
oterapi	-13696
▁beğeni	-13697
facebook	-13698
▁yapalım	-13699
▁Otomotiv	-13700
lerimizden	-13701
▁olacaksınız	-13702
bed	-13703
▁Okum	-13704
▁vekil	-13705
▁ülkeyi	-13706
▁ücretli	-13707
▁Seçenekleri	-13708
▁tedavisinde	-13709
▁ع	-13710
▁To	-13711
▁%10	-13712
▁TEL	-13713
▁hip	-13714
larsa	-13715
▁1990	-13716
arları	-13717
ularak	-13718
varyum	-13719
▁berek	-13720
▁heykel	-13721
▁bırakıp	-13722
▁93	-13723
▁lu	-13724
▁15,	-13725
▁şim	-13726
▁oruç	-13727
▁şube	-13728
▁idrar	-13729
▁İdari	-13730
▁cüzdan	-13731
▁tarihten	-13732
▁Tedarikçiler	-13733
dk	-13734
▁TSK	-13735
▁Eyüp	-13736
▁Kilo	-13737
enault	-13738
turkey	-13739
▁Kulüp	-13740
▁anlık	-13741
Soruyor	-13742
malarda	-13743
▁varken	-13744
▁etmişti	-13745
▁güvenle	-13746
▁uygulay	-13747
▁açıklamaya	-13748
▁araştırmacı	-13749
pl	-13750
hen	-13751
örek	-13752
▁aya	-13753
esten	-13754
▁burs	-13755
▁rkiye	-13756
▁varan	-13757
▁Global	-13758
▁yoğurt	-13759
▁Çantası	-13760
ilmesinin	-13761
▁ilaçlama	-13762
▁ücretler	-13763
▁Kürdistan	-13764
▁perakende	-13765
atür	-13766
gece	-13767
masi	-13768
▁bır	-13769
erver	-13770
▁kesme	-13771
▁adları	-13772
▁eğitime	-13773
OH	-13774
▁с	-13775
▁#3	-13776
▁79	-13777
▁2,5	-13778
▁Beb	-13779
▁HES	-13780
▁ÇEK	-13781
▁ruhsat	-13782
▁patlama	-13783
▁aldığımız	-13784
▁gerektiren	-13785
▁PU	-13786
▁all	-13787
mayla	-13788
▁gözü	-13789
▁Ayhan	-13790
▁Basit	-13791
▁Sevgi	-13792
▁litre	-13793
▁Fabrik	-13794
▁soruyu	-13795
melerine	-13796
▁rahatlat	-13797
▁tamamını	-13798
▁nedenleri	-13799
▁yöneticileri	-13800
400	-13801
600	-13802
dis	-13803
▁87	-13804
▁450	-13805
▁kâr	-13806
danın	-13807
uvarı	-13808
▁DEĞER	-13809
▁Ersoy	-13810
▁İstih	-13811
▁kısmına	-13812
▁düzenledi	-13813
▁görevlisi	-13814
DOĞ	-13815
Kim	-13816
▁Nov	-13817
▁Rul	-13818
▁kin	-13819
lesin	-13820
▁Yürüy	-13821
▁kasab	-13822
▁Karaca	-13823
▁sözcük	-13824
▁Meksika	-13825
▁plakalı	-13826
▁Komutanı	-13827
▁bölgesel	-13828
▁Yönetmelik	-13829
▁edebilecek	-13830
▁yapılacaktır	-13831
ра	-13832
TALYA	-13833
▁Group	-13834
▁Oktay	-13835
▁kaldım	-13836
▁sünnet	-13837
▁işareti	-13838
▁tehlike	-13839
▁çikolata	-13840
▁gerektirir	-13841
▁kapasitesi	-13842
bik	-13843
şan	-13844
dard	-13845
▁17,	-13846
▁TAS	-13847
▁algı	-13848
Avrupa	-13849
eyenler	-13850
▁Mobile	-13851
▁dantel	-13852
▁Değişim	-13853
▁sevdiğim	-13854
▁geçirdiği	-13855
800	-13856
▁Bayi	-13857
▁nice	-13858
▁Aktif	-13859
▁yemin	-13860
▁Hikmet	-13861
▁Silivri	-13862
▁dünyası	-13863
▁uzaklık	-13864
▁çekerek	-13865
▁yazılımı	-13866
▁hazırlanıyor	-13867
cem	-13868
oga	-13869
âlâ	-13870
oman	-13871
ciğer	-13872
SAĞLIK	-13873
▁nazar	-13874
aksiyon	-13875
▁Grafik	-13876
▁cümleler	-13877
▁dördüncü	-13878
▁vergiler	-13879
AĞI	-13880
2017	-13881
vent	-13882
üleb	-13883
▁enj	-13884
-2013	-13885
Press	-13886
ürler	-13887
▁Host	-13888
▁peki	-13889
▁sarf	-13890
▁Namaz	-13891
▁donan	-13892
▁nasip	-13893
▁sıkış	-13894
ilmişti	-13895
▁yüzüne	-13896
▁mineral	-13897
▁odaklan	-13898
▁ambulans	-13899
▁çoğunlukla	-13900
▁İstatistik	-13901
ydı	-13902
itli	-13903
this	-13904
ırıl	-13905
▁etap	-13906
▁sent	-13907
▁şartı	-13908
▁insani	-13909
▁Çerçev	-13910
▁üyeliğ	-13911
▁Bulundu	-13912
▁sitesini	-13913
▁markaları	-13914
▁bilinmeyen	-13915
▁geçmişteki	-13916
vey	-13917
▁HP	-13918
cası	-13919
▁%50	-13920
▁rec	-13921
▁sef	-13922
.2020	-13923
ımsak	-13924
▁Ebru	-13925
▁içme	-13926
enizde	-13927
tifika	-13928
▁referandum	-13929
▁baktığımızda	-13930
▁sürdürülebilir	-13931
ilan	-13932
ülerek	-13933
▁GİRİŞ	-13934
▁ispat	-13935
▁akşamı	-13936
▁Ataşehir	-13937
▁irtibata	-13938
▁uzmanlaş	-13939
▁düzeyinde	-13940
▁yöntemler	-13941
▁yapılandır	-13942
EDİR	-13943
▁iad	-13944
▁High	-13945
evious	-13946
▁Flash	-13947
▁Yağmur	-13948
▁gelmek	-13949
▁gönderen	-13950
▁kentinde	-13951
▁mutluluğ	-13952
▁veriliyor	-13953
▁Volkswagen	-13954
Ger	-13955
EKTR	-13956
aför	-13957
▁Alı	-13958
▁Mikro	-13959
▁Kizlar	-13960
▁misyon	-13961
▁peynir	-13962
▁yazıyı	-13963
▁patates	-13964
▁Kablosuz	-13965
▁cihazlar	-13966
▁sürdürdü	-13967
adüf	-13968
▁TIK	-13969
▁poş	-13970
▁komb	-13971
palmol	-13972
▁küfür	-13973
▁sıralam	-13974
▁Yönetmen	-13975
▁seçenekler	-13976
-)	-13977
CC	-13978
jantin	-13979
▁borcu	-13980
▁moral	-13981
▁yıkan	-13982
▁format	-13983
▁Başladı	-13984
▁kuruldu	-13985
▁İnsanların	-13986
▁üreticileri	-13987
PD	-13988
Con	-13989
bor	-13990
▁DÜŞ	-13991
▁Yör	-13992
dayım	-13993
efendi	-13994
▁serin	-13995
ındalık	-13996
dığından	-13997
▁Çalışan	-13998
▁kıymetli	-13999
▁hazırladığı	-14000
▁yaptıklarını	-14001
Am	-14002
KE	-14003
izy	-14004
arık	-14005
İLEN	-14006
ousel	-14007
▁Eren	-14008
▁esir	-14009
▁hort	-14010
▁Porno	-14011
▁Yapıl	-14012
▁mevki	-14013
▁Amatör	-14014
▁ithalat	-14015
▁gelmiyor	-14016
▁verirken	-14017
▁Yüksekokulu	-14018
UYU	-14019
üel	-14020
▁Gi	-14021
2018	-14022
tıkça	-14023
▁Alper	-14024
▁GÖREV	-14025
cilerin	-14026
▁Belçika	-14027
▁teminat	-14028
▁çağrısı	-14029
▁Muhteşem	-14030
▁kurtarma	-14031
▁Çeviriyi	-14032
▁kaldırmak	-14033
▁adlandırılan	-14034
▁birbirlerine	-14035
▁kullanıldığı	-14036
▁ا	-14037
▁Nus	-14038
▁Musa	-14039
▁İsmet	-14040
▁asansör	-14041
▁peşinde	-14042
▁DÜZ	-14043
▁Kez	-14044
▁Ley	-14045
▁Riz	-14046
▁THY	-14047
izmin	-14048
▁1980	-14049
▁ÖĞRET	-14050
▁eminim	-14051
▁kalkış	-14052
▁İKİNCİ	-14053
▁gözaltı	-14054
▁ilişkili	-14055
mayacaktır	-14056
▁hesabından	-14057
▁kullanıcıları	-14058
▁$$	-14059
adar	-14060
asal	-14061
▁1.2	-14062
▁Nar	-14063
▁İşi	-14064
▁Şam	-14065
▁Macar	-14066
▁içten	-14067
▁Şimşek	-14068
▁Koruyucu	-14069
▁faydaları	-14070
▁hayatının	-14071
Sat	-14072
ble	-14073
▁Lise	-14074
▁helal	-14075
▁ikiye	-14076
▁varmı	-14077
▁Sekreter	-14078
abiliyorsunuz	-14079
DÜ	-14080
TU	-14081
▬▬	-14082
hil	-14083
Koca	-14084
▁Leg	-14085
▁Maz	-14086
resel	-14087
▁Kenan	-14088
lenecek	-14089
▁Hukuku	-14090
▁kanalı	-14091
▁dediğimiz	-14092
▁öğretmenler	-14093
RU	-14094
264	-14095
BAŞ	-14096
GIN	-14097
aga	-14098
▁Kos	-14099
▁Çiğ	-14100
▁alem	-14101
▁meme	-14102
▁Avrup	-14103
▁Umarım	-14104
▁Vadisi	-14105
▁bilgiyi	-14106
▁negatif	-14107
▁seminer	-14108
▁etmeleri	-14109
▁üyeliksiz	-14110
▁alışkanlık	-14111
▁kullanışlı	-14112
▁atak	-14113
▁ÖSYM	-14114
▁ALLAH	-14115
▁Fener	-14116
▁miting	-14117
▁coğrafy	-14118
▁uyarısı	-14119
▁Düzenleme	-14120
▁varlığını	-14121
VC	-14122
].	-14123
▁(7	-14124
▁yle	-14125
▁1997	-14126
▁Nick	-14127
▁Getir	-14128
düğünde	-14129
▁baskın	-14130
▁vadede	-14131
▁okuyucu	-14132
▁Gelişmiş	-14133
▁bağırsak	-14134
▁meselesi	-14135
▁sürecini	-14136
▁etkisiyle	-14137
▁konuşmada	-14138
▁deplasmanda	-14139
▁çalışanların	-14140
▁çalışmalarının	-14141
Ber	-14142
URU	-14143
arp	-14144
dia	-14145
anne	-14146
▁Lan	-14147
▁MUH	-14148
▁Tun	-14149
▁kot	-14150
▁çif	-14151
Kadın	-14152
avgat	-14153
▁atar	-14154
▁girin	-14155
▁tıpkı	-14156
▁çalın	-14157
▁Burdur	-14158
▁bakter	-14159
▁eğilim	-14160
▁Sözcüsü	-14161
larınızda	-14162
();	-14163
▁Exp	-14164
akkak	-14165
▁zeka	-14166
▁tabir	-14167
▁Bakıcı	-14168
▁nihayet	-14169
abilmeniz	-14170
▁TM	-14171
▁(6)	-14172
▁19,	-14173
▁24.	-14174
▁AMA	-14175
▁Noel	-14176
▁sark	-14177
EĞİTİM	-14178
▁annem	-14179
Arkadaş	-14180
▁kurşun	-14181
▁parsel	-14182
▁gittiği	-14183
▁kişileri	-14184
▁fotoğrafı	-14185
▁kadınlara	-14186
▁kararları	-14187
▁kurulması	-14188
▁çevrimiçi	-14189
▁Elektrikli	-14190
▁olabileceği	-14191
");	-14192
LEY	-14193
als	-14194
isli	-14195
mine	-14196
gelen	-14197
kadir	-14198
▁doğu	-14199
renses	-14200
▁baktı	-14201
▁kongr	-14202
▁Vekili	-14203
▁takvim	-14204
▁muhalif	-14205
▁devamını	-14206
▁kavuştur	-14207
▁haklarını	-14208
▁planlanan	-14209
▁ziyaretçi	-14210
▁Kaynakları	-14211
cy	-14212
Yak	-14213
sol	-14214
alın	-14215
▁27.	-14216
▁fed	-14217
AŞTIR	-14218
▁Green	-14219
mayalım	-14220
▁tahsis	-14221
▁Şırnak	-14222
▁Arnavut	-14223
▁mükellef	-14224
▁Katılımcı	-14225
▁telefonla	-14226
▁İlköğretim	-14227
▁gerçekleşecek	-14228
456	-14229
▁3-4	-14230
▁TAM	-14231
▁Coun	-14232
▁ekim	-14233
▁ihan	-14234
▁muam	-14235
▁neye	-14236
lemeyi	-14237
▁şarap	-14238
lığımız	-14239
▁beyler	-14240
▁Polonya	-14241
▁butonuna	-14242
▁başkanlık	-14243
▁sürecinin	-14244
leştirilmiş	-14245
▁şampiyonluk	-14246
bür	-14247
ely	-14248
İst	-14249
caya	-14250
▁Uyar	-14251
lüğüne	-14252
▁barın	-14253
▁kaygı	-14254
▁hatası	-14255
▁koymak	-14256
▁Oyunlar	-14257
▁artarak	-14258
▁gideceğ	-14259
▁haliyle	-14260
▁Bağımsız	-14261
▁açıklanan	-14262
▁bağışıklık	-14263
▁Bulgaristan	-14264
▁İc	-14265
INAR	-14266
▁Cre	-14267
▁bam	-14268
▁çırp	-14269
Eğitim	-14270
▁Elmas	-14271
▁kopar	-14272
▁vasıt	-14273
▁ifadesini	-14274
▁belirlenmesi	-14275
/09	-14276
▁MED	-14277
▁zan	-14278
▁şun	-14279
calan	-14280
▁nerde	-14281
▁Birkaç	-14282
▁seviye	-14283
▁oldular	-14284
▁uzunluk	-14285
ury	-14286
▁CO	-14287
tain	-14288
▁Akif	-14289
▁Jack	-14290
▁Rıza	-14291
onomik	-14292
ournal	-14293
▁YEŞİL	-14294
▁alkış	-14295
▁bekley	-14296
▁ulaşan	-14297
▁alacağı	-14298
▁paramet	-14299
▁tesisat	-14300
▁Karakter	-14301
▁Demokrasi	-14302
▁Alternatif	-14303
RUP	-14304
▁},	-14305
yken	-14306
▁vay	-14307
inler	-14308
▁Resul	-14309
▁işley	-14310
▁sıkça	-14311
▁yaşamı	-14312
▁çıkarı	-14313
▁Fethiye	-14314
▁modeller	-14315
▁öneriler	-14316
memektedir	-14317
▁oluşturma	-14318
▁üyelerine	-14319
▁і	-14320
▁1.4	-14321
▁Som	-14322
▁DEST	-14323
▁miras	-14324
▁ÖĞREN	-14325
▁Modeli	-14326
▁Zengin	-14327
▁arayüz	-14328
▁derhal	-14329
alizasyon	-14330
▁sevgiler	-14331
BAK	-14332
▁20,	-14333
▁Lid	-14334
iyete	-14335
▁Mars	-14336
iyeler	-14337
lerince	-14338
ılmıştı	-14339
▁vermez	-14340
▁muhabir	-14341
▁toplama	-14342
▁çalışacak	-14343
▁istediklerini	-14344
▁yakınlarındaki	-14345
Ama	-14346
apur	-14347
iral	-14348
▁125	-14349
▁TFF	-14350
aliman	-14351
esiden	-14352
▁motiv	-14353
▁Birimi	-14354
▁kırsal	-14355
▁okulda	-14356
▁gezilecek	-14357
GEN	-14358
KAT	-14359
tenj	-14360
▁ald	-14361
▁yanl	-14362
▁sözlü	-14363
▁ÜCRET	-14364
▁İlhan	-14365
▁Yorumu	-14366
▁bebeğin	-14367
▁buluyor	-14368
❤️	-14369
hor	-14370
kek	-14371
▁16,	-14372
▁Vah	-14373
▁turu	-14374
ıcılık	-14375
▁GÜNDEM	-14376
▁gömlek	-14377
▁işlemini	-14378
▁ziyareti	-14379
▁getirecek	-14380
▁yukarıdaki	-14381
ape	-14382
Ulus	-14383
▁Bors	-14384
▁Öğret	-14385
▁Ulaşım	-14386
▁Hazırlık	-14387
,”	-14388
RI	-14389
َّ	-14390
obe	-14391
leği	-14392
▁ISO	-14393
▁eti	-14394
Yardım	-14395
▁sürüş	-14396
▁Ambalaj	-14397
▁katliam	-14398
▁kazanın	-14399
▁anlatmak	-14400
▁gönderdi	-14401
▁anlamıyla	-14402
Siz	-14403
zet	-14404
ijing	-14405
▁Borç	-14406
▁uyuş	-14407
▁vaka	-14408
yester	-14409
▁GÜZEL	-14410
▁atlat	-14411
▁Belirt	-14412
▁Master	-14413
▁Tahmin	-14414
▁diyalog	-14415
▁sevdiği	-14416
▁kuruluşu	-14417
▁başlayarak	-14418
edin	-14419
▁Rek	-14420
▁Tır	-14421
▁Neyse	-14422
▁amaçla	-14423
▁seçmen	-14424
▁uzanan	-14425
▁ileride	-14426
▁itfaiye	-14427
▁tanışma	-14428
▁Bakırköy	-14429
▁ellerine	-14430
▁Yarışması	-14431
▁Motosiklet	-14432
sağ	-14433
abol	-14434
rama	-14435
▁LCD	-14436
dinde	-14437
▁DAHA	-14438
▁email	-14439
▁Hastal	-14440
ladıkları	-14441
▁Fiyatlar	-14442
▁arayarak	-14443
▁sonlandır	-14444
▁katılımıyla	-14445
gusu	-14446
Sınıf	-14447
geler	-14448
▁DENİZ	-14449
▁Orada	-14450
▁tüken	-14451
▁adamları	-14452
▁doğalgaz	-14453
QU	-14454
▁Sö	-14455
▁4.5	-14456
▁eksi	-14457
▁suçlu	-14458
▁yaşta	-14459
▁İster	-14460
▁Yaralı	-14461
▁böbrek	-14462
▁tarafa	-14463
carousel	-14464
▁Firmamız	-14465
▁Tedavisi	-14466
▁görevleri	-14467
▁sunulmaktadır	-14468
aden	-14469
▁konf	-14470
▁2009,	-14471
▁Robot	-14472
▁masal	-14473
▁YÖNETM	-14474
▁seçmek	-14475
▁düşünün	-14476
▁olanağı	-14477
▁bağlamda	-14478
▁maddenin	-14479
▁bölgesine	-14480
▁tamamlandı	-14481
▁\	-14482
Tel	-14483
miz	-14484
use	-14485
▁sm	-14486
AŞAM	-14487
▁(12	-14488
▁ani	-14489
INDAN	-14490
▁Ağaç	-14491
▁deli	-14492
▁Antal	-14493
▁David	-14494
▁Dinle	-14495
meliyiz	-14496
▁Alınan	-14497
▁klinik	-14498
bildirim	-14499
▁Youtube	-14500
▁haricinde	-14501
▁gönderdiği	-14502
MU	-14503
-22	-14504
aşk	-14505
kam	-14506
sor	-14507
▁Muz	-14508
▁Tour	-14509
▁kronik	-14510
▁Mesleki	-14511
▁Vergisi	-14512
▁düşüyor	-14513
▁senaryo	-14514
lenebilir	-14515
▁yaratmak	-14516
lamaktadır	-14517
▁videoları	-14518
Sin	-14519
akt	-14520
iyana	-14521
▁0212	-14522
▁Boru	-14523
▁açıp	-14524
estern	-14525
▁tırman	-14526
▁duyulan	-14527
▁Business	-14528
▁renkleri	-14529
▁yazımızda	-14530
▁bağlantılı	-14531
jet	-14532
avat	-14533
▁BAL	-14534
▁Erc	-14535
▁Yel	-14536
▁epey	-14537
▁kanı	-14538
▁Havuz	-14539
▁İnönü	-14540
biyotik	-14541
▁bitcoin	-14542
▁istismar	-14543
▁KizlarSoruyor	-14544
TİN	-14545
edeb	-14546
inli	-14547
ıyer	-14548
▁takib	-14549
▁havada	-14550
İletişim	-14551
▁konsept	-14552
▁solunum	-14553
▁Ortaokulu	-14554
500	-14555
YOR	-14556
tüğ	-14557
▁#4	-14558
▁OF	-14559
erez	-14560
▁HAF	-14561
luyum	-14562
▁ayın	-14563
▁şoför	-14564
edektif	-14565
▁Hayatı	-14566
▁orjinal	-14567
▁tabanlı	-14568
ılmasının	-14569
▁güzergah	-14570
▁ingilizce	-14571
▁düşünceler	-14572
▁Rezervasyon	-14573
▁sonuçlarını	-14574
idd	-14575
ruz	-14576
▁sc	-14577
Tube	-14578
gara	-14579
ibel	-14580
▁Esra	-14581
▁ilim	-14582
emeler	-14583
enizin	-14584
eşekkür	-14585
▁Yalova	-14586
▁ekrana	-14587
▁galiba	-14588
▁kavramı	-14589
▁Fransızca	-14590
▁görüntüleri	-14591
ikip	-14592
▁ULU	-14593
▁yıp	-14594
/2012	-14595
ıklar	-14596
▁sars	-14597
▁evlenme	-14598
▁Referans	-14599
▁babasının	-14600
▁kanalları	-14601
▁yaşıyoruz	-14602
▁Afganistan	-14603
▁faaliyetlerini	-14604
LAT	-14605
▁CUM	-14606
▁KİT	-14607
▁get	-14608
artma	-14609
▁Tamir	-14610
▁tanrı	-14611
▁düzeni	-14612
▁filmde	-14613
▁vermey	-14614
▁yıldön	-14615
▁yaşadık	-14616
▁söylediği	-14617
▁görüntüleme	-14618
Der	-14619
riz	-14620
▁KÖ	-14621
UNDA	-14622
▁MUT	-14623
kanın	-14624
▁elle	-14625
▁00:00	-14626
▁Üçüncü	-14627
▁aileler	-14628
▁bankalar	-14629
▁cevabını	-14630
▁mantıklı	-14631
▁suçundan	-14632
▁MÜDÜRLÜĞÜ	-14633
Trabzonspor	-14634
▁diyebiliriz	-14635
</	-14636
OCA	-14637
Per	-14638
pan	-14639
▁26.	-14640
▁ADV	-14641
▁yil	-14642
Benim	-14643
aleti	-14644
üsünde	-14645
▁taşır	-14646
▁görünür	-14647
▁mevzuat	-14648
▁söyleyerek	-14649
▁sıralarında	-14650
hip	-14651
unk	-14652
▁212	-14653
▁Ziya	-14654
▁gönl	-14655
▁kira	-14656
▁star	-14657
▁Adası	-14658
▁deyip	-14659
▁yerin	-14660
amızdan	-14661
▁sayılır	-14662
▁sağlandı	-14663
▁geleceğini	-14664
▁düşünüyoruz	-14665
RAK	-14666
▁MI	-14667
date	-14668
▁Gelişim	-14669
▁sözleşmesi	-14670
▁yapılmasını	-14671
FE	-14672
gec	-14673
▁Süs	-14674
▁cor	-14675
▁Bilm	-14676
▁Albüm	-14677
▁Kırım	-14678
▁emlak	-14679
▁salat	-14680
▁İleri	-14681
▁atarak	-14682
▁oyunda	-14683
liliğini	-14684
▁kurduğu	-14685
▁sayılan	-14686
▁altından	-14687
▁Birleşmiş	-14688
▁hepimizin	-14689
▁Yukarıdaki	-14690
▁yaşadıkları	-14691
RC	-14692
ehan	-14693
▁hab	-14694
▁çim	-14695
barek	-14696
▁Turu	-14697
▁zira	-14698
ankara	-14699
elenen	-14700
▁Inter	-14701
▁sizce	-14702
▁start	-14703
▁taciz	-14704
▁buğday	-14705
▁edemez	-14706
▁parası	-14707
▁almanız	-14708
▁olanları	-14709
▁önlemler	-14710
▁etkileyici	-14711
▁helikopter	-14712
▁kesintisiz	-14713
▁:(	-14714
arda	-14715
atya	-14716
▁Lir	-14717
▁Seks	-14718
▁askı	-14719
kurmay	-14720
▁ışığı	-14721
▁sınava	-14722
▁yüzünü	-14723
▁çirkin	-14724
▁Aşağıda	-14725
▁yepyeni	-14726
▁Uygulaması	-14727
▁yapılacağı	-14728
13.	-14729
dex	-14730
▁Na	-14731
▁Vers	-14732
▁gezi	-14733
▁NASIL	-14734
▁Özbek	-14735
▁kağıdı	-14736
▁çektir	-14737
▁diyoruz	-14738
▁kusursuz	-14739
▁Ümraniye	-14740
▁2'	-14741
▁IV	-14742
lick	-14743
▁Dek	-14744
temiz	-14745
▁Elec	-14746
▁Putin	-14747
▁Yücel	-14748
▁atöly	-14749
▁sende	-14750
▁tutarı	-14751
▁Buradan	-14752
▁belgesel	-14753
▁Oyuncular	-14754
/8	-14755
Sı	-14756
kab	-14757
iiri	-14758
▁SAR	-14759
adılar	-14760
lasses	-14761
▁Türkç	-14762
▁Zayıf	-14763
▁yumuş	-14764
▁zanlı	-14765
mayınız	-14766
▁Sandal	-14767
lediğiniz	-14768
▁ailesine	-14769
▁sağlanır	-14770
▁Hizmetler	-14771
▁yaşandığı	-14772
▁göreceksiniz	-14773
Kam	-14774
git	-14775
▁XL	-14776
AMLI	-14777
Genç	-14778
life	-14779
rettin	-14780
▁çözül	-14781
▁Dağıtım	-14782
▁Barcelona	-14783
▁unutulmaz	-14784
▁kullanılacak	-14785
+0	-14786
EYE	-14787
▁za	-14788
▁FİN	-14789
▁1995	-14790
▁Usul	-14791
▁Terim	-14792
▁Radikal	-14793
▁Olimpiyat	-14794
▁Ju	-14795
▁gu	-14796
▁Nem	-14797
enter	-14798
liydi	-14799
onlar	-14800
▁prov	-14801
▁Sanay	-14802
▁seviş	-14803
▁MERKEZİ	-14804
▁geçmesi	-14805
▁günümüz	-14806
▁Muhasebe	-14807
▁WhatsApp	-14808
mü	-14809
yp	-14810
ymp	-14811
Ürün	-14812
▁Kop	-14813
▁füz	-14814
▁vaj	-14815
deler	-14816
▁Ford	-14817
▁kazı	-14818
▁Semin	-14819
▁English	-14820
▁gelişmesi	-14821
oku	-14822
▁Dah	-14823
▁Det	-14824
▁Ist	-14825
güzel	-14826
▁atış	-14827
▁dolay	-14828
▁İstek	-14829
▁Okundu	-14830
▁kadros	-14831
landığını	-14832
▁sevindir	-14833
▁Konferans	-14834
▁kuruluşları	-14835
▁taşımacılık	-14836
▁oluşmaktadır	-14837
Ol	-14838
▁sk	-14839
▁900	-14840
▁Ölü	-14841
Altın	-14842
▁Tekin	-14843
general	-14844
▁hayati	-14845
▁iseniz	-14846
▁şimdiye	-14847
indekiler	-14848
▁kapsayan	-14849
meme	-14850
▁Ata	-14851
▁PER	-14852
▁sos	-14853
▁Tuna	-14854
▁köpr	-14855
▁kandır	-14856
▁memuru	-14857
▁uğruna	-14858
▁Arçelik	-14859
▁fragman	-14860
▁Finansal	-14861
▁romantik	-14862
▁gereğince	-14863
▁3'	-14864
izza	-14865
▁Katı	-14866
mamalı	-14867
▁sözde	-14868
▁yüzme	-14869
▁Meryem	-14870
▁Profes	-14871
▁Marmaris	-14872
▁geleceğe	-14873
▁Temizleme	-14874
▁Sonrasında	-14875
oul	-14876
▁kala	-14877
▁Olsun	-14878
Twitter	-14879
ilendirme	-14880
▁durumdan	-14881
▁ortaklık	-14882
▁yaşamaya	-14883
▁yaptıktan	-14884
USD	-14885
▁Kn	-14886
üfer	-14887
itleri	-14888
teyner	-14889
▁Siyasi	-14890
lerimizle	-14891
▁apartman	-14892
▁yapmaktan	-14893
▁Sertifikası	-14894
▁6-	-14895
▁25,	-14896
▁App	-14897
▁Nih	-14898
▁aşı	-14899
▁kopy	-14900
▁öncü	-14901
▁sıfat	-14902
▁Haberi	-14903
▁fındık	-14904
▁sevinç	-14905
▁yazıcı	-14906
▁Herkese	-14907
▁işveren	-14908
▁buradaki	-14909
▁Çevirisi	-14910
▁dosyaları	-14911
▁programlar	-14912
▁kullanılıyor	-14913
url	-14914
▁Ce	-14915
iday	-14916
ikli	-14917
▁0.5	-14918
▁sofr	-14919
▁branş	-14920
▁ceket	-14921
▁soğan	-14922
▁Sözler	-14923
▁aralar	-14924
▁yaşına	-14925
▁Tunceli	-14926
▁ifadesi	-14927
▁sendrom	-14928
▁kurumları	-14929
▁çıkmaktadır	-14930
Geç	-14931
İĞER	-14932
▁Sex	-14933
▁eng	-14934
▁TEKN	-14935
▁past	-14936
▁Kongre	-14937
▁sponsor	-14938
▁öğrenim	-14939
▁sahibinin	-14940
zim	-14941
İyi	-14942
▁og	-14943
####	-14944
orge	-14945
▁şik	-14946
ENLER	-14947
▁imaj	-14948
▁temp	-14949
▁dökül	-14950
▁endişe	-14951
▁tezgah	-14952
▁Yazılar	-14953
▁Videolar	-14954
▁sıkıştır	-14955
▁Tarifleri	-14956
▁hizmetini	-14957
▁internetten	-14958
Bank	-14959
onal	-14960
▁DİK	-14961
▁Hap	-14962
▁müd	-14963
▁Şem	-14964
kusuz	-14965
ogram	-14966
▁Küpe	-14967
▁gene	-14968
▁trak	-14969
▁kalmaz	-14970
▁ebeveyn	-14971
▁ettiğim	-14972
▁İttifak	-14973
▁Gizlilik	-14974
▁beklemek	-14975
▁karaciğer	-14976
▁kurtulmak	-14977
uba	-14978
Hakk	-14979
▁105	-14980
▁apk	-14981
▁Bitk	-14982
▁Hadi	-14983
luğuna	-14984
▁Sabit	-14985
▁saçma	-14986
lediğim	-14987
▁ustası	-14988
abildiği	-14989
▁restoranlar	-14990
▁değerlendirmek	-14991
nur	-14992
ading	-14993
▁saray	-14994
▁Galeri	-14995
▁propag	-14996
▁liralık	-14997
▁gerçekleştirmek	-14998
▁Hab	-14999
▁Isı	-15000
▁ucu	-15001
▁Chan	-15002
eliyiz	-15003
▁DÜNYA	-15004
▁Paketi	-15005
▁başını	-15006
▁başlıca	-15007
▁hissede	-15008
▁sevimli	-15009
▁kurucusu	-15010
▁mesajlar	-15011
nt	-15012
px	-15013
▁lav	-15014
▁Note	-15015
▁Anlaş	-15016
▁klasör	-15017
▁yaşamış	-15018
▁benzersiz	-15019
▁oynanacak	-15020
▁çıkarılan	-15021
hh	-15022
MED	-15023
ones	-15024
▁İLG	-15025
▁Store	-15026
▁ölümü	-15027
▁büyüyen	-15028
▁evrensel	-15029
▁kütüphan	-15030
▁Çiçekler	-15031
ulus	-15032
▁4.2	-15033
field	-15034
ideki	-15035
ection	-15036
▁Ahmed	-15037
▁Denet	-15038
▁burda	-15039
▁karan	-15040
▁pasif	-15041
▁Geçirmez	-15042
▁karşılay	-15043
▁verildiği	-15044
▁aydınlatma	-15045
▁gerçekleştiren	-15046
ett	-15047
osit	-15048
▁DAN	-15049
▁Road	-15050
▁Elbis	-15051
▁filan	-15052
▁Hırist	-15053
▁Saadet	-15054
▁oranla	-15055
▁jandarma	-15056
▁özelliğini	-15057
çam	-15058
buki	-15059
Yerel	-15060
Devamı	-15061
edikal	-15062
▁Fikir	-15063
▁fakir	-15064
▁Kimlik	-15065
▁asfalt	-15066
▁huzurlu	-15067
▁isminin	-15068
▁yaptılar	-15069
▁depresyon	-15070
)’	-15071
ÇEK	-15072
▁sn	-15073
▁fan	-15074
▁GENÇ	-15075
▁Rüya	-15076
ashion	-15077
▁BURSA	-15078
▁terap	-15079
▁İdare	-15080
melerde	-15081
▁Dizisi	-15082
▁arkada	-15083
▁otelde	-15084
ladıktan	-15085
▁değişti	-15086
▁çarpıcı	-15087
▁başladığını	-15088
▁oluşturuyor	-15089
LARA	-15090
▁750	-15091
▁deh	-15092
iğini	-15093
utucu	-15094
▁Iğdır	-15095
▁ağacı	-15096
▁pasta	-15097
▁İhsan	-15098
larıdır	-15099
▁Burhan	-15100
▁Süresi	-15101
▁bekler	-15102
▁Başarılı	-15103
▁bırakmak	-15104
▁yönünden	-15105
▁sahasında	-15106
▁Mam	-15107
▁hev	-15108
LARAK	-15109
▁Krem	-15110
ENTURE	-15111
▁hilux	-15112
▁iştah	-15113
▁ELEKTR	-15114
▁ertesi	-15115
▁havayolu	-15116
▁vermiştir	-15117
▁Kullanılan	-15118
▁görüntülen	-15119
▁olanakları	-15120
▁hareketleri	-15121
▁Tüp	-15122
▁Fuat	-15123
▁Risk	-15124
▁farkl	-15125
feransı	-15126
▁yazıda	-15127
▁Mahalle	-15128
▁korkunç	-15129
▁Festival	-15130
▁Kampanya	-15131
▁Geleneksel	-15132
SL	-15133
150	-15134
></	-15135
inek	-15136
layt	-15137
leti	-15138
-2015	-15139
▁Hani	-15140
▁bayi	-15141
▁iPad	-15142
▁class	-15143
▁kimler	-15144
▁söyleş	-15145
▁sektörün	-15146
▁ADVENTURE	-15147
▁edeceğini	-15148
▁programda	-15149
▁başlamadan	-15150
▁Teknolojileri	-15151
ayiş	-15152
diki	-15153
light	-15154
▁Intel	-15155
▁Sahil	-15156
▁Taşım	-15157
▁aldır	-15158
▁Şişli	-15159
turkiye	-15160
▁binası	-15161
▁isabet	-15162
▁değiliz	-15163
▁Universit	-15164
▁ereksiyon	-15165
▁sisteminde	-15166
▁verilerine	-15167
yş	-15168
grup	-15169
onca	-15170
board	-15171
diğin	-15172
▁daki	-15173
▁yirmi	-15174
chester	-15175
▁Devrim	-15176
▁masaya	-15177
▁inceledi	-15178
ALT	-15179
isan	-15180
▁köt	-15181
lenin	-15182
▁Yüce	-15183
▁çeyr	-15184
▁ŞİRK	-15185
▁KURUL	-15186
▁Kalıp	-15187
▁ayırt	-15188
▁tümüne	-15189
▁Organize	-15190
▁göndermek	-15191
▁Değerlendir	-15192
▁Uygulamaları	-15193
vo	-15194
ûm	-15195
EME	-15196
▁fr	-15197
▁bro	-15198
▁sıç	-15199
burnu	-15200
▁Hala	-15201
▁eğil	-15202
▁taht	-15203
▁Altında	-15204
▁Beijing	-15205
▁Mercedes	-15206
▁değerini	-15207
▁işsizlik	-15208
▁hükümetin	-15209
▁ihtiyacımız	-15210
BN	-15211
AŞA	-15212
arn	-15213
ode	-15214
▁Koy	-15215
gören	-15216
▁Suyu	-15217
▁ünit	-15218
▁Şirin	-15219
▁partisi	-15220
▁eserleri	-15221
▁WordPress	-15222
▁yayınladı	-15223
▁bankacılık	-15224
Bas	-15225
Tab	-15226
fke	-15227
ınç	-15228
ROOM	-15229
▁Ren	-15230
/2014	-15231
leden	-15232
▁Alım	-15233
▁fırç	-15234
ayınca	-15235
▁Göğüs	-15236
▁dikiş	-15237
▁zorla	-15238
▁Eğlence	-15239
▁Kristal	-15240
ladığınız	-15241
▁yapanlar	-15242
▁yeterlidir	-15243
015	-15244
BİR	-15245
eşe	-15246
isy	-15247
uri	-15248
▁Vay	-15249
▁Şap	-15250
minal	-15251
watch	-15252
▁DEVAM	-15253
▁Oranı	-15254
▁köylü	-15255
▁kokusu	-15256
▁müziği	-15257
▁adamlar	-15258
▁dostluk	-15259
▁görüldüğü	-15260
▁olayların	-15261
▁müşterilerimize	-15262
▁DAV	-15263
▁TIR	-15264
▁efend	-15265
▁işyeri	-15266
▁Almanca	-15267
▁diyelim	-15268
▁eskiden	-15269
▁olduğumu	-15270
▁kaçınılmaz	-15271
▁Hayvancılık	-15272
HD	-15273
10.	-15274
İTE	-15275
izle	-15276
▁Gur	-15277
eliler	-15278
▁James	-15279
▁figür	-15280
▁Şenol	-15281
▁EKONOM	-15282
▁Sizler	-15283
▁Yüzyıl	-15284
▁saptan	-15285
▁Fragman	-15286
▁değişir	-15287
▁konunun	-15288
▁yıldızı	-15289
▁Politikası	-15290
.:	-15291
Ac	-15292
YY	-15293
ZON	-15294
sir	-15295
rojen	-15296
▁Aslı	-15297
▁Efes	-15298
▁boşal	-15299
▁kurma	-15300
▁kızım	-15301
▁masum	-15302
▁aktaran	-15303
▁birebir	-15304
▁çıkaran	-15305
▁açılacak	-15306
▁defalarca	-15307
▁değişiyor	-15308
▁yöneticiler	-15309
▁geribildirim	-15310
dom	-15311
pul	-15312
▁Dul	-15313
▁Piş	-15314
▁Keçi	-15315
▁Paul	-15316
▁iğne	-15317
▁Uyarı	-15318
▁Sancak	-15319
▁anayas	-15320
▁heyecanı	-15321
▁olduktan	-15322
▁anlaşılır	-15323
▁garantili	-15324
▁görüyorum	-15325
▁istediğimiz	-15326
fin	-15327
opi	-15328
.02.	-15329
0131	-15330
LINE	-15331
eğer	-15332
omas	-15333
▁kaba	-15334
eriler	-15335
▁AYDIN	-15336
▁Ereğli	-15337
▁tanınan	-15338
▁Resimler	-15339
▁sorumludur	-15340
▁hastalıklar	-15341
112	-15342
EKL	-15343
▁dib	-15344
▁Benz	-15345
▁Kimya	-15346
▁Meyve	-15347
▁babam	-15348
▁tercüm	-15349
▁çözmek	-15350
▁Şiddet	-15351
▁deneyin	-15352
▁izleyic	-15353
▁kilometr	-15354
▁taşınmaz	-15355
▁talebinde	-15356
▁kendisinden	-15357
.22	-15358
ynyň	-15359
▁TÜM	-15360
▁Vic	-15361
▁örn	-15362
hgate	-15363
ision	-15364
▁KARŞ	-15365
▁logo	-15366
▁Afrin	-15367
▁Aşırı	-15368
▁yönelt	-15369
▁YouTube	-15370
▁felaket	-15371
amayacağı	-15372
▁vermiyor	-15373
▁kadınları	-15374
▁malzemesi	-15375
▁teknikleri	-15376
▁sitelerinde	-15377
▁istiyorsunuz	-15378
BS	-15379
sw	-15380
OBİ	-15381
ýný	-15382
▁MÜH	-15383
▁Sand	-15384
peryal	-15385
▁ALTIN	-15386
▁kılıf	-15387
▁Beyoğlu	-15388
▁enerjisi	-15389
▁geçmişte	-15390
▁garantisi	-15391
▁vatandaşı	-15392
▁Performans	-15393
▁çalışmanın	-15394
▁vatandaşlara	-15395
bül	-15396
lol	-15397
üşü	-15398
şir	-15399
üphe	-15400
▁Erg	-15401
▁RES	-15402
▁ren	-15403
avori	-15404
▁burç	-15405
▁Bonus	-15406
▁taşıt	-15407
▁senden	-15408
▁söndür	-15409
▁sürecek	-15410
▁havaalan	-15411
▁kurallar	-15412
▁internette	-15413
rl	-15414
oke	-15415
fiye	-15416
▁5.0	-15417
▁Ayv	-15418
▁fiş	-15419
ğinde	-15420
ıldır	-15421
▁Henüz	-15422
▁bulgu	-15423
▁mekân	-15424
[...]
